f4fafef809f50103
10f6ed0102fafdfd
02fd0cfb0bf80b03
fb07fff8fbf60902
02f7f9fe0d030a10
f9f9f707f6fe0e01
00fcfd0bedf8f9f3
f408fff3f300f301
040ef20808f3f00b
0307f5f8fdf5fbf8
f6fb09fe060b05ef
0bf3fff6f4f60bfe
04f803fef302f4f6
f60d0d08ff000107
040d0202fd0309fe
0c08fbf308fe09f7
09f3fef905160700
f50b100201f4f4f1
fa03fdf8fe0f090e
f3f5030707020a0a
f90c06000bf102fc
06f6fb07f807edf6
0efb02f40a02f40f
f802fff3f50506f8
fe0602f50aff0502
f1f2eefbf6f803fe
0d05f800fef3f410
0100fb0109050707
09f50d04f6fff7f0
f5f6f201fdfd0afc
fd08050608effc0e
01010af7f6f4080d
03f10d00eff502f9
fd0307f1f60400fa
f2f0fe090c0a0cf3
f102030df601eff7
faf70c01040cef07
f8fff003f804fcf7
050902f70b0200ee
f405f5f2fcfaf609
07fa01fd00fbecf0
fafe0c0a00fa05fd
f6f801f70804f5f2
030201f3fef80908
0df80bf9ed02f60b
f006f50909030ff7
0c080e050300fef7
f5ff03f4fc0902f5
fff902faf20bfd07
09f7100404ff0a0d
ee03f0f4edfaf7eb
0b02f409fb08fefb
04fd0505f3faf6f5
0707f804f3f7feff
09050afcfef8f5fd
0008f6f3f20e01f6
02fc10f8060708ef
f707f303f7fbfd03
ff06f80af70af508
04060df7fdfa0d04
110bfffa0b0ef7f7
0d0cf00cff04ed09
00ff0d0cf502faf2
07f800f9fafd0508
fb00fbf8f50ff306
0601000a04ff0c03
fcfa0a0ef7fcf306
f9f5f5f20afc010a
05fc0ff90cf9f70f
f808fdfff9060801
0cf5f4f20df70d07
f7030101fbf80904
fc070507f4ed0e0b
0105ef0bfd080c02
fcf6f70000f2fa00
0b06fbf80600fe02
fa0ffefbfbf90afc
f7fefbfc04080804
0905fe02fcfcfaff
fdff08f9f4f7fd06
0302f5f50c02f303
0af008f807080910
f6fb090ff6060204
03090108ff04fdf0
0403effcf3fcfaff
fb0cfbf909fe0c0c
f6fd02fdfcf4f907
04fff3f2fef6f8f3
fb0b080200fa02ff
fafcf4f801040704
f300fb061102f806
04f4fe08f7030505
0100fef3fa0a040a
05feec090308f8f4
fa0503f1fa10f402
f8f90af4f8f604f8
09fdf6f3fdfbf4f8
0a0cedf7fbfcf6f8
06f7f20a0c0a05ef
0a000005f704fdf3
f4f5fafaf0f8fef1
040a08fb0502f109
060a0010050c05f7
0806fdfffe0d01f4
0406f9f5f7110300
0c0eeff7f9f4f408
08f8070611edfdf8
f1fafbf1f3f600f4
02f4fb05f60703f5
10f706f803f804f4
fcf7fa060b0df704
f809fcf4fe0309ed
0c080d07fc06f6fe
0c0eef0d05f9f306
0908fb0607fffaeb
fdfa070e00f7f901
03f5fc0005f9ff0e
07fb0cf7fe00ed0d
03f9fb06ec0c07ef
fd0506f609fc04f4
0b03f5f901fffced
f8f6f9f400fd0905
070a0ffd100403f8
01f4f404fcfc090e
fdfbf204fb1404ff
f20c0505f8fefa05
0bfdf30af3f300ee
fe00fd02fb01080d
00f50106ff0d0d0e
0dfaf20704f5faf7
04fef70607eeff0f
fef9f5ef02fc000b
080df3f8edf4fffd
fe02070707fe0af7
05fffa0602030cf1
07090a09fef3ff05
0af607080a07fb06
fdf0ff05faf800fe
00fc0af4fb0a0503
0100f50dfdf80906
f7ff14f50602f6fa
11f4110104f7fbf1
0e0e0104f30ff808
f4040a02fdf9fc00
fbf4f2fc0df7f4f0
f3f90b0808f9f000
f4fa01fa04eff3f7
fdf6f604f5030a01
f6f7fefd06f5fe07
0efe00f700faf4f6
f7000e0f08fc0103
03f507f5f304fbfd
060d1002f8ed0604
12f503f7f9080ff2
0703fefaf00304ec
f2f7f0fcf9f70408
0efdfcf50ef20005
fc060cfefd07eef7
0b0dfd05f7f3fbff
0af8f5fcf20cf7f4
050bf0f9f5f004fc
0505fbf609f5f404
00ef080502f90701
0708f6f701faff08
fa0c09fd08f90702
f4070cf50308f008
0cfd06fe02fbfbf8
020300070406030b
fe090b07f3f007fe
fff8f0fb04ff01fc
f305f9f7fc0703f8
f506f70afbf2fef8
0108fefe0bf10807
0bf8060601f912f3
f2f500f312f2fdf8
07080a02fafb06f0
faf60c0304f1f50e
fcef020609f6eb0a
0cf70806fb08f6f2
08f3f3f001f500fb
0df40905f9f40002
fef2ec01f607fa10
0500010df9f700f4
ffff00f00605f604
fc040bf611f60801
ffeffe06fafff710
06fe000bfaff06f3
f500040302f700fd
0cfcfe0cf805020d
0f09060d01fbf3ff
00fafdf8f80407fd
0003f9060108fdf1
f8050004f6fd0102
fa0cf50bfffe060c
f3f70a040208fc0f
0508080afdfff8fa
f80a0af7ea04ff04
0607fff8080301fb
0909fffef8fc0509
f6f6ff04fcf9fbf9
020b100712f1f8fb
0dfd07f603040207
08fb090bef0c0b0e
f40bf70704fbfcf0
0a0ffef4f808f4f4
f3f311fd09020a08
00fdf9f9ef07fb06
030309f30cfe02fd
fc03f1fa040af904
0f0b130206fb0c01
f70508f3f608fefe
fcf507020b04fa0c
01ffeef4ed0702f3
040ff90707060dff
f7fc0701edf80209
0206fe0afb07fd05
fdf3fef90ff20b03
fff600fd02fcee07
04fefa0d0a0b040a
01f6f406070b070f
ffff0409f7f1fa04
f910f00a04f800f5
0600f0f1040df307
0509fefb02fef605
fcf3fb02f2030606
f204fef2fef309f8
0dfa08f305fa06f1
f70808f0f602f2ff
02050903f7f5f0f3
fa000208f7f4fe0d
fcf4f910f0fef50c
01f6fafb080600fd
faf100f80a0105fb
00f6f8f5040302f6
0d0a0af9edf700f8
f508f8faf7fcff08
f70f0802fafbf60b
f1f5000302f6f4fc
08070d0902fdf9fc
08f3fa01f6fe03f7
0602fa0bf4fb0ef3
f60a11fefa04f80e
fd08030cecf608f6
00fff506f20a06f8
f0000e07ec01f3fe
ff04f109f4feff10
06ff050504ee0aff
fd04020af2fe0107
f5f9f706fc03f803
f50011fef6fffef1
f807f800fe06090a
0804020401f7fd04
00fd0afff80d0cfa
05fb0ef5f406f9f6
0300f5fd03020df1
02f8f5030afbf4f6
0bf0fff903f0faf2
02f4fc0706fdf70d
02f80df31402fc0f
05fffb090e06f500
f203eef20909fe02
f90ffdfd00fe03ff
04f8090410080401
fe0302f5fefcfb07
070100f408f505f7
0ff8fb0601fef2f1
f00bfc0900f8f407
fd060102ff0e0b02
0e03fb0bf7fbf0f0
10f0edfd09fc0402
07f90d0bf7f50001
0700fa07f9fc0204
f9fbf30b0d00ff0c
f306f00704f5fff5
f7fcfdfaf0f8faff
01fa08000408fef9
fa0bedf801060510
0c0a0d03f9fb0c00
04f70600f50ffdff
02000201faff09ef
f5f8f0f9feefeff5
fc040d0800fa0bf9
010310ef0e08f802
0004fb01f8f604fb
020107fc05fa07fb
0e040308faf6fcfa
f3f9f704f5f8f307
090af204fafff704
f4050105f80810fd
060d02f4fdfff8fe
0209f1fcf7eff4f0
0e010d0501f7f5f4
0c0df0070a0afd0a
f9fdf50cf5fdfbf6
02faf101f80afbf8
f4f5fe0c0202f410
04fdfefdef0bf7ff
0bf607010105f8f5
f40405fff701f5f1
01faf00402fbf7f4
04f50c09f9010a07
f2f1f90006f708fd
f4f30e000df3f409
f9fefcfbfefafdf6
fe0506f4ffee0701
f50af605f5fe0d04
fb07f004ea00fb08
0c0908f405f908f2
09050507020af9fa
0701edfef40910f3
f907f3fef90b00fc
f7fff204f3fc0300
fbfaf4fff0f0f403
10ee0d0507f90af4
0700f902f105f90f
fbfe050af9090108
08f7f8f9f2ecf408
100bfa0b09fc050a
f6fcfbf70709f7f9
09fcfdf7030c09f3
f800fd0207f3faf5
f30b1207f300feff
fa08f2fc0bfb00f0
01f908f3f80bfd04
050909fd000dfefa
f7050007f8f5fa0c
fef7f103f5f9f1f6
fcf704fc010308f7
f601fd02090c0bf6
09f3f6030cfe08f7
03f404f30cfefd0b
0b0af400fbfb08f5
00f4f508fdfaf6f9
0beffafdf9f9f403
f50601fc07fbf409
09f6f9f5fbf7ff03
02f60bfafe030b06
fefa0e0afb06010a
04010d0a1408ff0b
f2fbf8fbf5ff0202
0af2f60604fc0c0d
0a0c0505f5f40c07
fe00f3f6fbef02f0
f6fe01fef305fc01
f4f80df6f4ed04f3
04fef404fdf8eefb
06fe07fa0609f509
0609030c0bfd04fd
fe0f02f605ffff07
f7f50f0b0bfffafe
f3fe0af1edf20212
f9fcf100f4fa02ff
0206ff03090e0805
0afbf3f506f60cfa
f607f606f5f1fa0e
0b08f90006f8080b
fb00fefd0ff90a0e
fbff0b04050bf40c
04f60c0f040e0604
f9fbfd01f603fb08
f609fc0b030a00f4
0500f8fd0701130a
0df8f5f201ff09f0
0bf7f8f70804f805
f80f0401fcf4fdf5
fa0cedf80008ed11
fe0dff06ec060904
08080df509fe01f4
0bf6f9010b10f2f3
0b06ee01f4040107
fd07f6f50f0b0203
03fafaf903fe08fc
08fc0104010df60e
f3f3ecf5fa03f20d
f8fbf8fcebfaf30c
05fe030b03f3f4f5
f40cf50c05fd03fd
f4f30b080504f8f6
f0faf6fcf206feff
f5f9f201f3fb0708
f8f8fe0107fc0af7
00f6f8f2fa08ed03
f2f3fff8edf0f7f4
fc05f0faff0afc07
