fef10208020408fd
ff0810f809f41004
0a06f90a0001fb10
0507060208000a01
05070705fa080f02
090708fe0103f200
f6f8eff8ee0f0af9
01f708f601f7fe02
ff0bfb01fcfaedf1
fc0bfbfef8ffedfd
08fc0e04e801f705
07f6fbfffe0bf8f6
05080103f4020d05
10f4f8f504040005
f8f80dfa02f6f6ff
09f9f6f306030105
f00c0ff1101305ff
f509f2f30401fef2
f30c02fbfff4fcf9
08fcfa050cf2fb0c
fe0a0904f20cfcf4
fff5fdfe0409f40b
0609f60ffd03f905
0d00f503f602f90c
0cf3fef602f0fbf2
ef0b0a04fbfcfd04
000a0204f3fefb0c
08fbfdfbf2fbfc0f
01090c050006f1f8
f2fcf4fff7f7f6fd
0a0c0cfdfaf8f9f4
01fbff0dfafef80b
f2f4f1f9f0fc0b01
f90e0200060600fa
f3f7f2f2090bf902
f907f4f20307fd0c
090c07f8fdeffafb
08fc0a05fbff0806
fc03f9f708ff06fd
07f401f209f9ff04
05fc0cf8f60ffefa
f60506f8f7020dfb
120501f0f004f3fa
fb07050500f6ff0d
0c060df702f6f8fe
f504f90608f50d0b
fcfdf5f7ec090403
0df6fa0c02f603ff
09f706f8efee06fd
0e09fa0302f60204
fe09fe0d0f0d09fb
02020b0705fb0504
0bf3f0fafd000502
12f0edfaf9070a03
0bf20e0b0f00f9f4
f60101070b02090a
02ff0f060c040d04
000b0d00010c0c0e
090cfcff08f3f4e9
f9f202f2f8fffd03
05fd0ef30b00fff8
01f70700fdfb0a0f
fef9f4fa0302f7ec
07f8f801f4fb0602
f6f70e0b08fa050b
0f040ef501080efb
fa040600f808fe03
01060100fdf9f8f9
050df205f9f2fbfb
070c0ffc07fd0c0b
f4fef50d0f02f603
f400f9050007faf7
04fd06f8f7ef03f9
0a010a07fd08fcf4
0d03f2fdf7f6090c
fffe06fbf4f502fc
f303f00af8f3f2f6
0bf910f7f8f3f9f1
0cfdfef5fdf9f9f3
f5050bf200f20a06
0309f80a0e07fe0a
10f30207f805f1f3
070c0af7f1f8070b
fbf703f1fdfff6f9
fcfcfc05ff0609fd
f3f3fcfbfbfcfefc
fdfcf9f1f5050c02
f8f90b0cff00f2f9
f9f7f004000504ef
09faf9f5f6fb070c
04fb0b000bfdf902
02f90b0b09f80d0e
051108f10cf8f207
fcfceef70102f8f9
ff01f4f01108f8fe
fb06fb05f4f507f2
07fbf1f6f7f204fd
fcfbfb0501010b01
07fc07f9f309f3f9
0306f90807f80904
0b08f508f4f7ee0d
03eff7fffc02ff07
f8f7010eed03ff0a
fb020404fc0d0408
f102030b01f9f8f9
0403fafcf8f6ff04
0bfcf606f3ef0cfc
050df6f2ff07f403
01fdf8fbf102ff06
05feeeff0b030805
f0f8f6f7eefa0efd
f5030d0af4f104f0
0203ff00fdef0afc
fffb09f4060607fa
07f5080ef4f2fcfb
00020a080b0afa01
f2f4edf6eaf7eef2
0709eef406040d0d
fffa07f2f002f9ec
fc030cf5f9fafe0b
02040f02010603ee
f1000d08ff070dfa
f40af90407f9f609
0401fbfe0c09070c
f806f80308010900
fb05f204f6fe060f
fff4050af1f7ff08
f108f509fefef502
05fe0102f10908f5
f701040306fafa02
f60b09fc0afe0503
f405fff6f503f70a
0907fbfe0cfefb07
fff601fafb00effc
f3030aff0ff1fd0c
fe0702f5fefe01f3
fc0508020203f8f6
0d080903f90a0807
ef070a050f01fd03
0502fe0bfc0cf4f3
0e0cff02eff507ff
f4fe09fafe04f7fd
0202fdfde9f3f4ef
fa01f402f7fefbf9
fd00fafbf70608f3
06080bf6fffa0e08
fdfffd0605f101fa
00ff0ef3020a060a
04f609f909f6f7fd
f50112f9020bfa01
0609fbf3f9f103f6
faf9090b03f6fc05
f0f90c0afdf1080c
fa0810f0f80001f5
05fefeffee0301ea
f6fafb00f1fdfb02
03fcf1fcf20cf10e
fc09ff04f9fd0310
f7fb05fb09f004ff
f7ff03f3fe0dfdfc
f50c00f6080b0906
0af4f60900f90a07
0a0800f90d03f6f2
fefb02eef5f504f5
f6010dff06fbfc07
0707ecf5f7f7030c
0a0af8fef3080607
0bf90cf1060a0302
0a090ffbf509fe0a
f00aec03050705fd
0b01eff3f706f7ff
f207fe04f2fff0f3
01ff0f0a09fafbfc
f8f30307fefff604
fdf907f809fe0af6
0004f51207f801fe
06fdff0204010606
ff06eb0004030bfe
f8fef7fdf40900f2
f8f2f70103090406
09f3ed05ff010a04
040cecf3fcfc00fd
03f60d0e040bfdf2
04f5fef60800f502
03090bf70a0cfcfc
fff71108f80b09ff
00ff08f3f90f08f1
f4f4fc0ffe0605ff
0507f5f9f30d0ff8
1201fe00fb01f112
f6f6070aecf30300
f5f3f7fdfd0804fa
0c0e040901f5fe0d
fbf2eef8f409f00c
0104fe0b0706f9fd
fefaf302000807fc
fcfffdf9f701f9fb
f7ee0efb0a07eff0
f508f80210fd09f5
02fc06f4f9f90302
0afbf9f908080eff
000ef2f4010a01ef
fc0c02f4f60afeee
fbffffff0cf5f8ef
06020ff70df5f5f0
f7f8f80002f706f5
f3fcff070f040205
0b0c05f1ff00f7f9
090ffbf901fff700
0805fcf9fe09ff09
01070e040300fb0f
07ff0207f60a0cfc
f8f9f1fdfcf80803
f607f4fd060206fe
fb05fefd09fbf4fe
05090aef0c05f7fa
f8f1ebfbfef5fbff
f90503fcfefef501
070a14fbee01f604
09fffff80a010804
fbfaf5f80205ee01
07fa0901fafafef4
1006030afd00f3fc
fdf5fefc0c04090b
0af5fe09efeef607
f9f6f404fe01f0f0
fffdf40cf7fe06fc
f30af5f4f5fbf2f4
0c07fef6070604ff
0ff60cf6f505f5fd
0bfcf80aff0cfd07
090808fa02070b0d
f90105fef0f9f9f7
09f7f7fdf3010a0b
0afaff02f30df901
f908060508fa01f3
f8f21000f4f4ff0b
07f10bfa05f3f8f4
fcf70900110ff9f2
000a0c0b02f5fafb
0d09f7f811f8f8f7
f9fcfdf602fdf0f2
fc0b00f91007f7fb
fcfdfef5f3f5000e
f50c08f9fa06fc0e
100bf9f8f7faf10d
f10afd000af10208
0002ffef07ff0206
f40309030603f2fe
0dfa0304f8fbf6f8
0d0d06f9fbfbfb01
050008ff0303fcf7
0dfef4050b09f311
050ff406fcf40d0a
03010401f205faf4
05070402ff0cfdff
fbff00fc0bf80df7
07071200fe0301f1
f9f5f102f3feff0c
0401f4f6fcfff4f8
faf4fdfc12030307
fe00f6f700f5fc0e
0d01f5fb090af60b
1002080d080afe07
f404f605fbf40d0c
10fceb02040709f6
f30d0403e90cfafa
0af5f4fdf8fb03f4
0700f7f8f6110702
f402ebfd04f3fd0b
f708f7feef0403fc
f4fbf3f5f307ff06
06f9040c08fdfe0b
f810fdfd0900fe0a
05f2f508eeef0a08
090bfe05fef80408
fe0309f70af80a11
f804eb0300fdfa0b
00fff8f4fc0901f1
f2fbfaf4f50cf9fd
ff080c06f00df10e
0cf0f2f4f803f808
000cf8f3f611f70d
fff9f4f7fa060b0d
f802ff050afafd03
faf90707fe02f0fa
060203f208f9fd04
fe070107010bfe0a
f70c0e03f50b0405
ed0507fd01030500
fff5f7f9edfd0a05
0c0c09080f07fc05
f50709f90bff0c09
0101fcfafb06f3f7
0507fff1eff70d08
fd0b080706f607ff
ff00f904fc0ef0fc
f311fcf406f90bf3
000407f90002faef
06f709fcfcf50107
fb0ef20a0dfe07fa
03f1f404fa02f2ff
0807f4fbf6000810
f9fef80406fafb09
fefc0ff2fc07030e
06090bfa0407fef6
0df8f6f50d0ef210
f80809fd0dfc0801
fb0bf80804fc0600
110c0707fd0209f4
0c00f5ffedfbfced
030307f4f303f20b
03fbf601ef06f4f3
0b0bfb0101f8fbf6
fe0df6fffd01faef
07fef706030e0509
f20bfa01f3030d08
09090ff803090cfd
fc03f304eb110df1
0afaf9f9030404f5
fbfff6fbefedf903
0c0bf8f5fb0200f8
f20208ef02f903f3
09f9f5fa02f40201
f2f60af61209fffc
03f3f6f5fdfef90a
f707f2f40f000104
fc00fc020dfbfdfc
fe04f406f9f6f404
f908fa0905f3ffed
f901f7fe08f909fa
fbf7fa0406fff4f4
f9fe11f7f70bf4f8
fdf3f407090401f6
030c00010f0e06fb
f9fcf7fef7f8fc05
f5fffffff707fc03
0306080408080002
fe0d02f5010ffc0b
0208ff05f3010bf8
0cf201fef8060dfe
0a0005f406f616fc
f8fc0a0810ff03f5
fd09faf80bfc0307
0301f9fe0df4fbef
f80b0e00fb040b06
fc0df8010c0404fe
06f8feff0101fe06
fbfcfc09f6f0faf4
0cf400f9fe08f6f9
eff8f7effd0a0b0f
f702f40c07fbf901
fb0af5f70d08060a
f2f4fb0a04fefaef
f5f20304fff8f50b
f80d03fcfcfcf305
fff5f20a01061007
0bfd02fff50a02fd
f901fe0afdf3050c
f4f5f1f9f2fc0708
f804f7fdfdfc0600
fa0df909fd01f2f3
f9f8f805f10701f8
f704fef609f7f7fb
0bfc0ff8f602f4f0
fef7030cf6fdfe00
f3090d07100f030c
08030bfdfe0bf6ef
fdf8f503050b0403
ff010106fb07fdfb
f9f7fdfbf6ee08fa
010a02f903fa02f6
0bfb09f7f3f7fcff
040401f4f501fbf0
05fafdf5f9f203fa
04fcf6eff304fbff
001009080a08fdf0
0afce9fbf9fc04f0
01fe0bfaf2f7f9f7
00f6f20308fa0c05
070afc02fcf6f90e
03fb0d03ff00f50f
f905f307eafff8fe
080007fdf905f4fb
