ff07eefcfdf41005
0c01f3fd02f3f40d
f3fe03fceefb0aed
f4fbf6f6020200f8
080a05f50df70310
faf8020404faf7f0
f606faf5050c040e
fd030a080600f8fa
10fe0008f0fef7f6
0cf8fa0002fa0900
0200f60d09120612
09f9f8f7f8f406fa
fa0806fbf90e0900
11f0ea0704090cff
090904eef6f7020a
fbfa0600030c03fd
ff08f1f406f70400
fcfcf40afafa0bf3
f4f9fa000d0f08f7
fbf50309070b040e
09f9f202f3fd0e06
f4f4f40af809f50d
fb0703f7ec0b06fe
0bf907f206fdfbfb
0d040b03f7fafb08
08f0fb0c020b0bfa
0c06050607fafd0e
05f40af60304f60e
fef70900f8f10bfd
110502f20500f8f5
fff6fffa01040b0f
f80204ff0300f6fc
fdfe0a03f7fd01fa
f80efaf105031009
f8f1f4f5ff0a0e0c
010c0bf8faf3f4f8
030210f8030d0604
02f908fa07fbf803
f9f30a030d0af3fc
ff07f807f8ff03f3
0cf3fd0904fd060a
0a05f601fdfcfbfd
020b00f5ebf9f803
09fe0607f7040304
03fe04fff304fa08
f5fffaf8f908ed0f
06ff04060d0cfa03
08fdf5fcfe0cf802
faf5ef0df9f502f3
0b02f40500011004
f2fcf3f3150304fc
f507fa0604f8f9f7
07f30b0dfbfbf805
fcfafe080306050f
f2f7fb0ff001fb05
06fa0706f80f020f
0bf90d02fb10f0ee
0bf8f60df90001f0
09fb03f50815fc0c
f8f70200f60801fa
07f3f1050910f506
f7efeff60704f1f5
f80cf9f9fc06f30a
00070301faf6080d
fdf40af9fffe0604
fdf80802fffef412
f605f7f7fb0bf904
03fa0901f702030d
f90e0afa0e00fbfd
ffff0d05f9f700f8
0afe05fef8ff07f4
030602ff03fb0604
07f20600ef0afefa
03f4ea01fa01f5f4
10f804faea09f8f5
0905f9f90c05f9fb
f2fff401f50e04ff
ef05f10308fafaf7
0bfe05f0f60505fe
fd03fb0af5090104
000103fcf812fef7
f9fbf6fa05fd1006
03fefc0e0f01f815
fd05f7f100f5faf2
fc0bfd03eef5ff02
0a0901fcfe01fd03
fa060909f2f4f4f5
0305f70a02fbfb0b
0009fd000bfb07f7
05f8f50b08fc0b0c
fcf8f10e02020bfb
f3f30007090bfc06
f9fa10fafbfbf005
05f1f304fbf8faff
f5fa0d0bfdf701fc
f6f50503fc01f4f0
f3f700f6f904f203
0d06f2fef7fd0308
0c0a090e0beff8f8
fc080404fa07f4fa
f1ff00f5fbf5f1fb
f5f904f50603ff0e
020bf10106fe020a
f503f9f0fe05fffd
f9010bf6ef030af3
08f506fb00f4f10c
f2f105fb010a0b0d
ff06070200fcf501
fbfa11f90dfe04fb
08feedff07fa05fe
f60cf80300f306f9
0afcf7ee06f706ec
020bf7ff0f0df5f4
01f4f50af306f4f4
f5f5f107f5010ff3
f9ff0000f7fb04f8
03fbf6f8eb06f7f3
0ffc0dfff9ffeef5
00f9f1fd0cf4fe0a
f6f908edfd0cf9fe
030bf3f506f1f208
0d0cfb0aff0b07fc
0cfc01f5eff606fc
0203fd05010cf511
f2fceb0a0810f5ff
fff209f3f605f303
f8f800fc120af7f2
040afeef08f700f9
08fcf8f3ff0bf305
08f405fff6f9f5f9
fbfcf4f1fefbf9ed
f4080305fc09030b
f3f302f907f5ff0b
f8070f0804f6f709
f40301f7fc0cf5f7
fcf8f7fe0c0afe03
08100cfcff1202fa
03f8fc04fa09f80b
0103f4fefd0d09f9
070904f6090c0306
0c030c0af4fa0bfb
f50afc0608fd00f7
f3020b09ed07f108
f508f5ff0c02090b
0600090af508f8f4
fb05f703fa07f905
fef8fb080105050e
01f304f80100fa11
0d0b0ff8f9f9f801
07f20df108080f01
faf3fffe04fcff07
07020b0100fefc00
05fcfa0806ed080a
f7f5feed00f61103
0b080c0dfeeb0706
030afb06f7fefbf3
fa0cf905f109ecfb
f400f9fb03fd040d
06fcf70416fef3f3
0007f4f8fd05000d
f7fb0e0105f4fe07
040a0804f8fdf2fe
f9f808f7effffafa
06ff01f000fefe0a
f7fe11f4040bf903
0c08f1010002f3fd
00fff705ea0602f1
fa08fe0c01f9fdfc
0ef90001fbf9fefa
05020c0805060602
ef06f3f2fa040c0e
07faef0ef6fa06ec
02020c0802fa0ef3
10ff0e090bfdff02
fbf8f60a0401f611
0afbf7fbf8fe0906
fa0dee07f50e06f8
0ffd040afa02f702
0408fe0cfa07fb05
040303fdf8090af4
f300ea040502f7f6
f9fafbf9f4010403
07f2fd0a0efa0df9
ff0201f208f9f700
0d0ffdfe000e0af0
11f5000af802f9f8
06f9f4fdfdf6f905
0b06fefe03ff080a
fffa0702fff50dfd
f8f611fffb0809f7
fff6fe050e040701
0c0704090b02f7f0
fdfcf3fbef0408ff
feff07fefaff0700
f90806f405f00bf6
0bf509f30109f9f4
f5040cf4f1f8f407
09fefa01fbf7f3ff
0c000c08f6ffff02
fd02f804f50101f1
fe0e0ffd0900ff06
fb05070004fbf909
0dfd0a050df1fa0a
f5fdf8f30300f9fd
0406f5f70afaf8fe
ff0cec02faf404f0
0dfdf80207fe070c
fd060506f40afbfd
0b0ef20cf7f308f2
04010b06fa0cf510
07f50b07f1f5ff09
0b02090a05fef609
0802f2fdfc0cf309
ef0cf30403ff00f7
0f0904f4eafcf7f4
f8fcf80801f6f4fb
fbf8ec0509f802f7
08f5f4090bff0e05
fffaf6f405090b0d
fc04fc05f8000101
0b040602fe050911
f80c0505040002fd
010cf5f3eff204f6
0503f8fbf5f0f2f4
f8f20308f0fdff03
08fbf1f808f903f4
fdfa0003f4fcfe0d
0c0b03fafd0005f0
0007fc040908fdfb
eef504f4f5f9f901
0ef7f80c060bf9f8
08f30a030909f608
f4f507f50afbf7f9
020d0bfa03020408
fffb060206faf6f6
fb0af80103f00505
0d0afcfa1000ee03
0ef9f70a05fffd04
02050afc01f8fcf1
fd0602f207fbf6f1
050d10fbf7fcf7fb
fb05f300f406fc08
0102fb0e0611fdf3
f4fcf202f20806fb
fef503fbf1f30af3
f5f0ef01f907f8f4
fdf3fe0d000300fe
fbfcf8000aff04f4
0509f2fdf807100d
ff04f2090406ef10
f6fdf20b12fcfefa
09f508f9f8040a0c
fefeedf6f5f1f907
faf505faf504f500
f6fcf4040202fc08
08fb0dff0104f9f5
03f3fd00ef06f7f6
f8fffeff0101edf3
06f8f2fefb07f7f8
fc07f60af4fef301
080af5fcf700f1fd
01fef1fafa06fcff
f701f10cf30cfbef
f500f50cfcf40000
0b0400fff0f9f703
11fdf2f308fef3f4
0a0109f402f6f607
fe09f90af20209f3
0401fd0305030709
f6050a040df8f8f6
f107f70503050609
fe03f60800f600f7
fcf7070b0bf9030a
01f7f8030907f70c
040bfef9f90af9f2
08f802fbfa02fffb
0010fe0bef08fd08
08020208f901f505
fbfff104fb09070a
0800f902feff08f3
05fb0af809f3f40b
050cf4070bfa03f6
07f50100fcf40700
0900fdf2fffd0304
f8f20afdfa03f30c
0208f9f503f5040b
030cf8fdf402fa0f
f606f8ecfdff01fe
faf1f1ff0ef8faf9
f9080f00010004fb
080c08fefa07f60f
fb09090401ff0509
0400f1010105f3fd
08f60e06f9faf20b
f30a0a10fc1007fa
0503f1f8fdf5fff2
090bfdfd0a12fff7
1009eff503fbfdf2
0201f4000807f90a
0705fa050108020a
fefdf300fdf308f4
0f00f9fb040110ee
fa02fffdeaf50907
03fbf20ef9fa0605
000205000208fdfe
0609eef80200f506
0903f2f00ff307fe
05f9ffeffaf5f8fa
09fcf6fa0706060e
faf3fef40407fa0d
0b02f2fbfbf70609
f5fb01f205f7fef3
07080cf9fdf3fc0b
fb07fbff0c01f2ff
0afbfb05ebff03f4
0805fff1f7f601f9
0900f0fa0dfef6fd
f7faf7f8fa0dedfb
030e07fc09fb07f3
0003f40cf5f70207
0ef7f1f90efc0209
fbfc04090af9eef2
03fdff030e06f7fe
fcfa07ef0b0302fe
0d0500f70afcfc0d
eef30502f8f60703
fbfc07020bf40401
00f7fcfb03fef2fb
070a02f602f7fa0d
03f4eefdfbf8f30a
f7060b09fe070509
f907f9fef902f90a
08f6f109f5fb09fe
fe03f802f900f3f8
f20b0c08060a0307
fe07f5fff9ff08f7
0af602fdf9f0020b
06f7f50507fa0ff9
ff05000c09100bfe
05f407fefd0af4ef
fa0406f8fff70bfd
02020b0308f5faf3
ff03faf9ec0e05fe
03fb0bf802f6fffa
f8fe01f606f4ee0c
1103f5f0fdfe02f1
0ff7fdfefb0e0713
fc0a080405fbf5f2
0c10040b07fd0106
0cf4f2070804faf0
f10409f4eff6f9f9
f306f80901fb0400
0305f70710050906
050df8fcfdf408f1
01f4f2f3eb0df6f7
0b0506fbfefd0200
f8f4fa050cfe01f7
fcfbf10601fbf604
04fc0304eef8090f
fc09f907f5fe09f4
fff3fd080e0bfffd
00f8f00806080c06
f4f1070df0fdfe0a
f7fe050afc09fbfd
fc0f0bf3f21104fb
f207f10cf9fdfdf9
f909fe0af6fdf5f0
0bf401f405f40b0d
0cf90df7f10af1f2
ff03f409070202f4
07f8ff07080207f9
fdfefe060609f6ff
04fcfb01fd00f306
f5f202f8f7f4f903
04f4060505fb0304
05fefffbfff3fc05
0309fb010cf6fff4
f1ffedfd0003eeef
05fffdfefff1faf2
0406feeff3f80207
faff05f7f1fa0a03
0d020af4fcf5fef1
0d09f0f808f708f6
01f6fefff3fbfbf5
