02f9fcfe09fdfe05
f4ed0b1107fc04fb
0ef00efaf70fecf4
fef0fdfeef0d0810
030eef0cfefe100b
02f9fbf8f60bf7f5
f300f8ff0a04f3fd
f90ef9f41004f8fe
fe080a1007f71109
f4f3f600f2fc0c00
fdf8fd0c03fdebf9
f7f70205f2f906f7
f1f3f9f501fd05f6
f908f602f9080511
10f2fef1faf8f001
f6f4f9010f070df6
fbfe0804f6f20ff2
fbef11fe000b0d0b
14fff2f9f706fef4
fefcfafc0e02fcf8
fd09ef08ff090c03
f20c0a02f4020b05
040a00080a0af705
05fdf705ff09eefc
0bf6f814f30c0307
ff02f213f600f5fc
0e030b020d100a0c
0df50105f2100604
f5f301fdf9f306f5
0a0d05fcf4060308
0c14f7f5f30ff409
0bf4f5f60800f6fb
f00509100cf60702
0dfb12fe02fdf200
f7ecf9f209f803f2
140900ef071109f7
f6000304fcf30506
ffee0605f5fd000d
07f70dfa0910090c
f313f50d030f0ef3
f9f510fff4f909fb
f904f50505fcf5fa
020bf9f4fbf9040c
f1fa0f0308f2edf7
1710eef5f2f408fe
f9fff8fdfef50c03
050bf4fb0eeffcf2
f10af805090f0bf1
0a07f4f5f2f30103
f9fbfff0f8fcf90b
0dfbfa0909efeffc
fd0cf7f7f1fcebf6
f9fe0cf7f8fff40a
02f903fbf3fff2fc
f9f8fdf3fbee060d
0c00f2070e01f606
0cff06f50cfdffff
07f20ff40802f9f2
080afafefcf20e0c
f905f3effe0f000e
02fc090df4f5fafd
f9fe07f1070bff09
0df205f7f20f0c0c
f3f5f7f20dff0603
f2fdef04fffdfcf6
f3fdfb06fd0dfffe
eb0307030c020e01
f5fdfcf1fffdf50a
0100f002f3fe090b
f50c05f8f9f7f20d
fe06fb0f0bf40d06
0ffdf7fbeff60a05
0c09f5f1f9f6040c
0df5f6f40ff7eff5
f90a0bfbf20a04ff
02f20bf8f606ebf7
110ff9f20a0cfb05
05fa0d0c05f0f5fa
f3060000070901f0
08f4f6f7effc0c09
110507090202f103
03fffeec1103ff0e
f916f4060ef50102
f804fc0c0bfa030e
10faf4f0070006f7
060f0ff5f4fb05f8
0e0df905fc0f06f8
1004030d0507f5fa
fcfd09f7fafc00f9
ff03ed06ee020601
0c110bf40e080e02
effbfa08fe0103ff
fcf105f802f506f2
f508f2fe030a050b
ef13fd0a070107ef
f1ff0b0bf0fffa09
0f02ff0ffcf80dfb
0cfd0eedf70dfa09
fbeefef8f60eeef5
fc1006f109fe1001
fef2f3ed06fa0e03
0400f703fcf1f2fd
f9f7fffcf60fffff
f7f30509f601f0f5
fe01f7fa02f80bf1
f9fcf3020609f8ef
0ff2f4f9f105fb06
00f9fff202070f08
0cf1030cf4f5ed02
f7f1f80d00fdf407
11020705fa01f30a
10f3f7f0fc0f05ee
0d050cf501fff7f4
05fd11f2100ef20f
13f70bf7020ff003
fdf2031010f4f20c
110c07f6fd0101f0
f2faf00a14070a0e
00f2f40afa03fa02
ff010001f7f00d0b
f10500fdf4f5fd00
05ed0e04fdff04fe
06faf803fff3ee05
07fbf20502080a02
0d00ecf5f3ff07fe
f8090bf0e80af50f
02ea01f30c05f407
eff405040706f3f8
05f7f8f609010af9
f7070208edf607f5
ed100c03f3f8f804
f0f4060d02f9ecfd
fa0bf0f1fbfa08f7
f00bfaf00011fbef
090af8f3fdf1fff3
0f02fd0a02040c06
f6fa0a0e03ff01ff
f70e0bfbf4f6eef9
031102050401f105
f1fe0f0103f8f7fe
110f00f705020f00
f40803f00f0305f9
edfa08fff206ef09
f2f10cf3050008ec
110af700f0fdee08
f80312fc0c01f505
f601f908f7f5f305
f705f4fc0602fb0c
fdf101fa08fbfb0a
f3f605f601f303f5
02f409fbf103f3f2
fc0d05f90ef1070f
0c07faf50c02f5ef
faf503ef010afd00
04080d08020bfdff
f001faf0f60d08fd
07020c03f40b0af8
06ebfdf10df9ff0d
0ef6f50a030cfffe
f8fcfcf9070d0a0b
ffff0f0bf0f104f3
fdf4f3edf401f1fc
f600f409f20aed0f
15f1fa080b000602
f40bf601f40703f5
f4fb09090d0c0e01
13fef402f90cf7f4
0eee06f50cfafcf5
f9f6f4fa0706f8fc
050913060cfa02f5
0c03fdf3f4f9f4f3
00f906faf9f21005
0efefc01050e09ff
0a130cf7f5fa0f04
f10c04fc0e01fc06
f3ff0400090d11fb
120b0afbfa0008fb
04fb1008f4f20ff9
020cf9ff0a05f3fb
0b07090ff10c09f8
08fb0612fdfb0809
fbfdfa0bfdf00d05
0a0bfa0dfdf210f6
f8f2fff8f5f40909
f20bf0f3050bec0c
04fa12f0fe02f2f9
0904fd000bf0f3f1
01f4f0ff0002f312
ff0ef6f1f6f20afa
fb0ff50202fe0908
03f6f00403f5fffb
0afefef10204fe10
03f903050ffbf1f6
f2f2f10af3fefbfd
f4f500f6f9f00f02
0601f80b0a0c0ffe
090ef4fbf90b05f6
fdeeef0001faf802
0f1301f9f40c0409
ff0cf90ff0120b0d
10fdef02ff02f3fc
f10706f1fe0903ff
0dfffbfafdfef4f4
f407faf2eff1f8fb
0ef9f2faf4fff6fd
050a13ee05f8f70f
f6fd0df706fd0408
10f106060df0f306
fbfbf10ff5f5040d
f6ee10ecfcf20009
f10400f60cff03fe
fbf50d01f2f3ecfd
0ef205fd01fc03f3
fb090ef5f50903f2
03fe02fc07f10905
01ff09fd0c090e08
f2ff0bf8fb0b0afa
fe090808f6080bf3
f303f5fa0507f90f
fb0b0dfffff605ee
effb03faf5f4efef
f0070b050a0aff04
fa0a0b02f1f8fbf0
09fd01fa1002fbf3
11f0ffeffaf80bfb
ef11fcf607fc0ef4
0dfd0a040806f702
08fc070cfa0809f8
0dfbf8f8fd08f10f
ef0305120504f108
0bf708faf7effdf2
0b0b06f8110df90b
0efa040304050ff6
05f7f40af6f911f3
12ecf909fcfef1f6
110cf70dfd000cee
eaff0ff7ff03f5fe
060bf5fe0cfcf9ee
fc05f8f2fcf912ff
ef0e0cfd03f20307
09ef0d0df90b110c
0c060afafb0905f9
fef50c08f3f90200
0d12f6f3f9ed1208
0df400fb0bfd1005
0e0ff0fd0ff6fef3
eef20903feef0ffb
f6fefeef020104fd
030bef1108faf9ee
f70d0108f6f5f7fc
fdf7f906f30c0d07
030309fe0508fafd
fdf7f6e8fafc02f9
0507ebf00af00cef
0eec070aff12f1fe
08ef000bf8000d08
080fefef0b040bf9
ef0708fc0304fa08
06eef9fd090d03ff
fbff0b0601f4f109
fcfaf9f6f6070feb
fc06fdf204f40c0c
0e0400f002ff0c08
0003f50a020707f3
edfaf801f8f90b03
f107f609fcf80af8
080506fa07f7020d
10ed0df6f8f002fc
0ef6f0ffff0006f0
070405070f0aff05
f8f1040800111503
120bf10e08eef2f2
ed0a0efa02fb05f6
f7f906000d11fe0f
f0f407faecfaf3f8
fdfffa02eff6fa0e
f808fefc050902ef
f307f200f50c0af6
fc13040af2ec09ff
0afdf10a0b040b0b
fffd03ec07fb00f3
fffd0cf1ff110ff5
0af60ffe08040ff6
fcf2f70f0bf1f4fb
f2f5f60108fdf10b
f304f8fcedf0f506
fb1510f700f80bfe
01fe000a0f0611fb
03fb01100bfef406
ef0bf510120ef3fb
0d0903f8fd03fa11
0104fef6f60df512
fcf106f5f800f5f7
fceafa0df903fffc
fdec03fded090909
fef1f7f4fd01fc10
fc0cf2000903f5fe
fd0704ef03fe0efc
ecf10efbf70a0806
0df005080ff311f9
f1080509ef00fef1
010ff0f1f90309fc
09f7f90c0a00ff0d
fe050904f30801f0
e904f80f0a0af9fe
f8f10b08fbf40d0e
f6fd00f6fbeff104
0703f2f3090013fa
02050becf5fef70d
09050b0df3f10df7
11fbfc0203090f05
fe000110020a06f8
eefff20bf4f50c00
f7f9100807eff5f8
faf706fa01fafdf6
ff0bef0402fcfef7
01020e0dfcfd120f
06f203f2f2fe0af6
1101f20a09120bf2
f40ff7f9fb0efafe
f90d090802f2f10e
0c070308fef8050b
ebfc0204f4f0fa08
f6060d0303f20bfe
0df3081106f904f6
f90703f2fd0a0a06
f806f90300070cfa
0bf8f1f404fb0b06
0c0bf0f4f5f7fc07
ff08eef410f0f5f5
fff207030bedf1f4
08fdfa04ecf1fa03
030afffe05f5fdfb
f1f70412fcfa10f4
04f5f8fc0d120207
020ffef9f5090202
ff0aec00f3efef05
ff040af70801f8f2
f5fef108fdf7f507
f709f5f301f609f1
0af2fcfd0af914f4
001102faedfbfbf3
faf6ef09f90ffff3
14f2f6fd0aefedf2
effd0108f5f509f7
f00bff08040cf411
0c040dff03ef04f7
f70b02fb00f5fdf7
03f8f702f6f4110b
ef0604fef30b03f1
06f30df7f3f205f4
f4f5ef08f5f0eef2
0cfa0003f3f7f6f9
05ec12f1fcf010f3
ed05f7f5fa14fa00
fbff0904f9f10bf4
f7f6f304fd0d03f3
f6f903feedf607f3
f60df3f0fcf7f4f5
100cf6f4020bf404
11f7f00a0307f905
0a0f0d0e1006fdf1
05070c0bf711070e
feed0402f7080700
0ef30600f50bfdfc
0cf90806040bf408
01fef50003fef8f5
f8f404ed040c0a02
f3f6f8fdf9f4f8f6
0af0f601f5f307f3
0de6f2f8f8f41108
0b01f4f40e07fc02
10eff305010a0d02
f70407fd01ff0609
0efd03fcf7fb07f7
060c010106f400f1
090dfb03f705f4fa
0308120a0300f210
fff70bf30208f7f4
0afa07070eee1111
04f3fd06ff0f04fd
f5eded09080ef7f3
0e1007fcf10108fa
fdf50d0b030304f6
