ed0eff03060df7f0
00fe13f202fdfe08
07f8f2fff70ff609
f4f2030104f2fb03
fb000ffd020e0b00
0fef110d0b04eff1
030c07f7120e0402
0f0a00effa03080b
04040000fcfb0502
02fb070df2f7fff5
efee05fd0303f601
0f040d00eefef211
ecf9f3f9070afbef
0cf10cf8060cfe05
fd030bfe0ffe0c06
0c06fb080f090e0c
140308f4fa0afcf6
faf40f0205f5f802
f90efd0b000a1010
0f04f20a03fcfe00
fbf3070701f501f1
f202e90df9f1f50a
0df20407f2090d09
01eef7ff03f3f2f1
ec06f300fff8f908
f60cf9110bf1f208
f8f808f3fcfdfe0c
0e11f201f10cfb11
09ff0efafffa06f7
fa0d030df6010f05
fc040c01fb06f705
09fa0702f2f1f805
effaf608f50b0304
fd07f40f10fbef0d
0bee0208f9f90907
030b0a0a0afe03ee
f9080c0500f70afe
0403f7fa030df5f1
fe041204f80df8fc
fdf901040e0f03fe
f50610f6ff0dfc06
00f8edef0b0cf306
0709f202020d10f0
0f02011004f9ef10
f6ff080a05fd04fb
f7f2ef00f1080004
f00eed000cfd1010
f6fa05fb0810f8f5
02f7f9f8f806040a
0af4fbfe03f9f9f4
0fec0dfb00fd100c
03effcf60afd060f
0cfcf10ef7f70df1
f6f5fd040b101411
08f4fc040af01303
fcf50b0ff6fe060e
0cfbfb0705f2ed09
04110103ed0506f7
05f50a050e0f090f
fbf9030dfcf3f000
f5fefafc06fd0cf9
f00d01040afef911
1207eefaf70003f5
f803f602f0f409f8
f9fd000cfb020902
fef7f301f1f308fd
08f5f904f803040c
0dfe07f7faf9f6f8
08fc0bf0fdfff40e
03f1f7f7f60202fa
15110501070610ff
f20602f1030dfef7
13fb0df1f801f6fb
ff000f0df1fcf2f8
0d0bfbf706f5f9f4
000bf30afd0efb03
fe01f4f40cfbfafa
ff03f1060ef3efee
00eeee0100051104
ef040c07f801faf3
f9ff0c03fd0e01f3
02eafb0e10030004
eaf6fdf3f1ff0af4
05ee030df7f708fb
0a080ffb000412f7
0a00fd100d02fbfd
f40feffafef8fcfb
02f1eff4f7fff80a
0401fff00b08f809
f2ed1306f9fa030d
f1ec07f707f4f4fa
07fe08ef0ef7f205
060707f5fc08fdf5
f907f60e070008f5
f1f6f6fff504fc07
0a09fef6f5ff1111
0d05f80cf9fe0af4
f3f4f2120708fe06
0f0ef5fa0ff90209
0f070a0e1001ef07
ef0aedfdf70701fb
05f8f302030e0cff
10f30afb01f206fd
f5fdfbf20b03faf5
f109050808fcf6f4
ff050ceff40113f8
00f50c0907fe0e08
04010507f6f3f8fc
f507f50bf7fc10f0
ef03070dfe02f0f4
fc060305fe0c0e0b
f40ef6fef30f0d05
0f02f70cf80def00
0cf0eef90002f212
f2f4f90a10f3070c
0ef3f8fafdf309f4
f6f3fdfd0a05f8f3
f6f203faf1fc0bff
010cf0f8fa08f60a
11f5fb0dfa0d0ff5
f40bf8eefef9ed0b
07fa07fff9020507
f10dfff6f0ed0702
eb0b09fa0a020ef9
07f20c09fe020df6
f8fc15ecea040f05
1012f5010804f303
110d08050ef1ef08
13fb100202060cfb
feff11070ffb0bfd
f50f07f30a0ef100
fe04060803f4fd0c
040a0d02ff02f903
070508f5ed0a08ff
f7f2f90beef90102
08f7f20703020f0c
ee090c00f3fbf409
f8ebf0120ef7f204
02070b030d09f4f6
0110fef3000402ee
f90008fcf2050c0c
eef50013fcfdf1f3
05fb030106f40b0d
080ef4000d03020c
f7fcfe040702f3f4
01fbfff9f70ef7fe
fd0cfa03f1ecfb03
0706f1f80df3fbfc
0c06f9f00b0df00b
ff011205f2f9f9f0
faf0fe0503edeff0
fa05f9eeebf9f501
ec04f2fd080afffe
090efa00ef0b0109
03ff070a0bf7f8f8
f31005f10600f90e
fb09fd0e0107f409
03f70a05fa0605fd
f0f909fcf10b0b06
0d00fc0dfbfb0011
12fe06faf9f50d01
eff801f603f907f5
f2f6fa02ff0106f9
f603fa0106f809fd
fc0afff9f705faf4
f4060cf6f8fdf5fa
0b02eff5fd0d0008
f306f0fe03fbfcf7
f9f6f81108f9f9fc
0c0a10fc03fef1fa
ecfe04f9eff60df9
0cf603f3f4090b05
07f1f813fff30df3
fdf00b021004fd11
fd0402050605fcfa
06120afe0d0e03f6
f0f9fbfbf301f50a
fc070cf7040f0af1
f70002faf903ecfd
0e0607eff8fc0a02
14fdf2f6ff0707f8
fe11fdff0efd0201
fd05f2feecfdf3f3
f7fe0f08f506f602
060ef3f9f8f6ee0b
fa05f1000ff6f303
f208070602f90a0c
070afef3f5f1fbfc
11f8080ffefefaf1
f904ff05f2ef010f
0c090604f5f508f8
fc0ffcff0ffff5f5
fcf2f1f2f5f7f7fa
0107edff03f6ee07
03f80e080ceff2f8
f2f6010204080702
f0f6eef6fcfbf9f4
0c06faf2090bf2f4
fbf100fff4f7ef0a
0e0bfb0a10f50ef3
f105040b0a01fcfc
01030af4f30e0bf1
0dec100efd0ef9fc
f6060af1f9ee0a0a
0d01fd110102f9f4
050f0d020b09080d
f8f70f0604f2fe04
0a09f203f6010ff8
f9f5fff8020004ef
faf504fff705f8f5
0a03fd090ceef903
f0f906ee1107f4f8
03f4fe0404f8fff2
0bfff7040c0e0afc
f7fc0302feecfaf1
fd09fdf209f40309
fef7fb03f5050509
07071807f4ee03f4
0dfef5f3f208fdfc
03f6fe0901090ff4
f5f1f206f5fb0bf5
0805f908ebf70c00
10ed00fcfdfa03ef
fcf90e090409f0f8
f60801110904f106
08fffc0c03000c00
f7f9f5fdf4f7fe01
faf00201f4030305
f70803f7000d0af1
fd0ff50af7010dfe
0cf2faf6eff1f600
06f8f70e06f2f409
fe0303effbfffdfb
f403ee06f3fe0910
01fcf4f600fafcf9
0a0b02f5f20a01f3
ed0b0beefafd06ff
08fff600ee0609fe
f30a04f5fe060c01
0dfdfafa04fb0f01
08fb0f030b060cf2
0f0cfbfdf5f60eff
f0fbf904fa001200
ed1400f8f0fbf408
eff8f9fe020d05f1
0d050409fc04f5f1
0bf8fa090a11f40f
07080509fc00f50d
ee0504ee01f9fbfa
ffeffff40309f602
f0ff0afa0d030bfc
0af6f60a100af60b
eef9f90806fb05f8
02060106ecfff309
0efffbf408f8ef0f
f9f707f8f8f2fff4
09f5f3020b01f6f2
ffedfef207f4fced
f60605faeffa0af9
0f0c00fc010609ff
05f5f1edfcfe040a
fef3f30ef9f0fcee
f60afefa0e00f00d
13f10d0a10ef1100
0e0d0207f9f8030a
0d08f1050100fe06
fd05090806fdefed
0bf7fe09f8f5fbf1
f31107fff40000f0
09091110ff07f208
130cf5f905021007
1011f40ff801fd07
f50dfc00fbf40bfd
faeff7f805090606
1100fdf4ee0bfb0d
f60bf60bf509f00d
0307f8faf7000800
06f50df20efef1f4
fff0faf7f205ee03
f2f90205080ef40b
0e0e06f2f3f20908
f7f60deefa0812f8
f8fbfc0cfbedeff4
ed0e0afcf80908f3
f400fd08020b00f6
f8081101fe06fc06
0cf609f5fd0e0bf6
eff8fef9f4fd1003
140209fbf9fbf409
f7fdf6f5100ffdfa
fcecfaf501f6f9fd
0809eff605f8f3fe
080603f5f502070c
0b060cfcfe070bfa
0cf5fff4f20df3f8
faf10906eef60cf7
04fef31008f0ef06
f40e04f3fafe0a06
fef003060efcf405
00fd03ef03fd0c0c
f3f4fdfef20112fd
1012f6f20c030807
00f00008f303f00c
1306f602f9f2ff06
1209f5010c020b02
02070a020cf20c01
f413fb00ef100f05
f8f7f70202080b12
1300f8f3f601fa04
0b090dfef1f40ff8
ec0df10df00004f4
02f60cf4faf0fdee
ff0df209fdfa0def
0708fd08ff040ff3
1109f2f90502fefd
f9f1eef9fff80ef9
1105090ff4f6fcf7
08f80fff0af404f6
0d0df8040ef4fff9
fd09f6010ffef509
0e0afdf3f200f5f0
04f5fbf105f900fa
f200f3f30600f6f1
0df0ef0cf8f61007
08f4fb0b0d03edf3
fc06fb0a0af3f10e
fc08ff03f5eef10e
04f0fff3f3f2fd0f
f60f02ee08060b01
0afd14f508f7fdf8
fff40d0af108f1f1
0eee10f40ef5f810
000c080dfbfefd0c
03f304010406f409
f9f2010efe01fcfb
fc050af60f0df0fa
00f5f5fd0301f5f0
0e01050806f8fbf8
05f60df30a0ef4f4
03fb0c0210050808
0cf70f03070515fb
04fe070df9f1fef1
0b05fa070efa0209
fdf60b0e0ffbf2f4
0c08f7f50001000d
0603eef2f304f0fe
fb0f06f1f7f5f300
0f0ff2f30f000501
f1f6f8ebf2020c0d
f80f1504f9f409fd
eded00f8eef7f4fe
0f03010a0cec00f7
f703f5edf3f70ef7
0afdfd08fffa070a
faf5f909f011f1f9
fdf9fff5f9f7ed07
0bf9090205f9ec0a
faf206fc0b00000e
080a0a05f90cfd0c
03060ef6fef900f4
faf101f102f40200
f7f310f3f7fafef6
f90700f4f50304f2
0f07eefa04f9f210
04fd0d05fc0c0502
f5ed1401f20aecfa
eb02f1fe04f3f7f9
f90001fa08fb0311
f50efcf5f901f500
f8f4effcfffa11fa
f3f0070df20c0df0
fffcf002eef1edff
ff0302020104f1f5
00fef108f6f8faf6
08f3f7fd08f800f4
fcf601fbf1fcf9f3
01f9010b0d0a0af8
f4f3fbf7f201fe09
040dff030cfdfdfc
f51111000bfaf6ff
f307fb08f3f70103
09f5fa0e060f00fa
0f0df60cf404f109
0ff6fef1fe0afd0a
