11f60bee070c090d
0704ec0af406fbef
041002fc0e1107fc
fcf2ff0e0df10ffb
0b08fa06100b06f5
11050602ff00fa09
0006fa0cf5fefd01
0b0306fbfafe10fe
eafcf5f900fdfbfa
0c0df905030e03f1
050a02fbf3f50cfa
fd0603fcfe05fb0d
f40bfcf6ff0a0605
0e0bf6edf1f80cfc
eff2f8f8fe00fef2
0f130afe0bf2f10b
fd0602f50cf70af1
0110f401f9f20805
09fdf7f7f6fe0d03
11f9fb0402fef2fb
0701fbfa0afc0309
06100b0b02f8040a
ec04f203061101fc
f705060bfcf3fa08
010af914090407f8
faf90214080d0cef
13fdf60206060301
0808f50c0df1fbee
f9f8fafbf7ef0efc
fdff0d00f607060c
fef6fa0103f7fd09
fd0aed0cee0e080d
fcf2f21200060003
07f7f9fcedfcf301
0c0c08f7f0ef00f3
07f7f60b070decf0
f4fefd0206f7fe0d
050a0302ff000303
0b050008fcfd06fb
fef9faf1120ef3fa
010207f207f50806
0eebfaf002f30808
0afc09f8f410f7fa
0a0d0bf4ee0deff8
ff00f310080cf704
07fb01f2fafcf60f
0805fe000dfd010b
fef003fffa0c0ffa
f90001f707f803f5
f9f507fd000d11ee
ef09f7fb060becf5
0303f4feff05fdfc
070a030d08fe10fb
0109f10704fef80b
f00ff40601f6f90a
0c07f6fbf8f3fe0b
f3f7f7f905f4ed01
08ee09f503fff206
f807f8030cf0f410
f701ffffff0efdf7
ef09f4100ffef506
0bef0dfe02ee0cf6
070608010bf008f9
0609f6fb050907f1
f4f0f9f406080c0c
faf705f7f7f5090d
06f6f6fe01ef08fb
04fb0ef4fc10f102
1708eef304f40606
fcf3fa04f8060af1
f10608f7f0001007
f90bf80e02fa0af5
0700f1fa09fd1009
f7eefbf30600fd01
fcfaf3fdf2f90afa
ed0dfa0404eff5f1
100b0c060dfff30f
0801f1eeededef00
f6fdf0071207100a
041408fd0e0efbf4
10070af506fb0002
ffec03f804fefdf5
ec0cf5fb0004f406
fa0b0a05fe050c04
f705f7f5f4fe07fc
0c11ee0b0cf60109
eff4ef02f6070d00
0004fdfb0e01f200
ff05f1f4fdfc0a04
f3faf1fc0f0e05f2
090b0a05faf6f009
030a07fef0f0f0fc
ff0302f8f5060cf8
0ff616f4f1f5fafc
edf708f900010afc
fcf203f90d060705
eafa0cf9fafa00fe
fff60cf3fb0002f6
0a02ff040b120bee
080ffaf008fdfef2
0901fcf8fef506fb
efee0aee02f50c04
f0000e00001108f2
0d08f70af001f702
07f6f7fff00602fa
0cfafef403fcf5fd
12f5f2f9f9f110f1
effaf4f404f60004
fd04fd11f4f8fcf9
08f40c0a0a0c0800
1200f4f50b050906
09e9f8010e0bf80d
060c0302f5f8faf3
0b0af301f5fb0e0b
ec1205f00909f60e
f60d020105fffff2
130a0df4fc09f5f4
02f3eff909f30a04
0006f5fe030809fa
09f6020506f61007
00ff0902fcf70902
0a0cf50c0c07070c
0d11f5f3010a0df6
fefc000101f5f6fe
fa0009f109f8f3f4
030b09f4000ff307
00f106f80ded08fb
0a1300fc14f1f2f5
07f70e06fbf8f0f4
fd10f505faf909fe
e9fc0c03f1000bfa
0cf206f510040efb
0a0bfafff30bff06
0604020bf40f0202
efee070501efeaf0
06ff00eff7f5f30a
fbfff9ee00fcfa01
0af715ff0b0dee07
0b0412f2fef8100a
f0fc0ff40509fafa
eff8000b05f0f8f5
fd04f1f308f9010a
fffcfafb00fcf908
10f10bff0cf9f5f0
fff705feff0c07f4
0511f7f5f811faf3
f4fe0e03040b06f8
fffe0cf300f011f0
f10ef2ff0c050cf9
02f7fef3f9f2edfa
fdfb0cfbefff0c0b
f802f009f9eef207
17f809fc01f9fef2
0df20e0108faf911
13f903fa0901fa08
ef08fefaf206ee0e
0505feeff7000706
01f9fff40a10f7ee
fef2fdf507fe0b05
04fbf4080bf3fd10
03f2f7f6fdf2f409
fb0d0ef1020afa02
07f009f40a070bfa
12edeeee07fc03fa
ff0cf20601fe0a0d
f8090cfbeef20306
1109f809f9fcf3f6
f2070505010110fb
0b070c05fbf9fd0b
01ef00fbef01feee
0804ff04ee09f0fa
f8faf4ff01fafa03
fbfa060501f8120d
10fff510eeeff00e
0ffcf6fe09f00bf9
0f00f7000809f906
0607f6f70a00f8f4
f11106edfcf5f90d
fee904fa09f1080a
02fbfa0ffbff01f4
fafd0700fcf90205
0c100000f304f20e
02f7f5f6ed0e060e
04f7090e010af508
09fa0dfe02f40c07
fc0bf70a070df1fa
fdfc080806ef020a
0d0efa03faf6f000
f80601f6fc070009
0df2fef1f1f0f3fb
0e070b03fd110410
f5f705f2f3fffe09
fd05fc100a08f3f3
f30a11ffecf00bf6
fc0af6fefff0f8ef
ff0f0bfbf8f704fa
f60ff1fff808fef3
f2effcf4ff06fe08
0efa00f709fc1102
05010309f8fa000d
f3f9f0ecfa0dee0f
08f802f6ef06fb02
ea080604faf7fa0b
0d0d10feecf0fbff
faf9f3fbfc05f6fe
07031605fbeff400
0304fb0bfef20af7
0d0b0fef0c0afef1
f705fff6f6fdf40a
0df9f2fe00f8ec0a
fe0405fd050cf0f7
10fd0cf401f206fe
0df705f4f4f80a07
0012faf5f2fcfd07
1211090bf601fdf7
13fd03f10d0cf10d
f4f6f5ed07f80def
0d00fc09101002f4
f0f210070af3f2f4
f7fbfbff030309f0
08070007fafd0000
0b0e030409ee06f2
fd0f04f405f3f301
0e03faf810fdf1ef
f9fcf2f0ff0cf700
04fbf8effaf707ff
f9f90efff8eef6fc
0fefee0afcf6fd0e
04fbf4ee0cf5f20c
f7ec0cf1eefdf507
f61205f8060bf602
0500f20703f211f7
fd090f0c0a0012f2
0208ef04f7040701
f400f90908ed11f1
0ff1f40b080df6fe
f80afff1fd021005
f2010f0205f2f1f4
02f4fefbf9f3f601
0dfef1fd08070006
eff1f2000308f1f4
fd0a02ff0e09010c
edfbfbfdefeff9ee
0c0e11f10bf9edf6
0afeee00070406f4
020603edef09f207
0aff01faf90a07ff
00070505fff5f9fb
ed06f7eef60def0c
0af0fbf0fcf7f50c
f3fcf202f5eff7fd
05f7f90bf4ef0705
f6f3f7f8f4faeffe
f4fffc0600f30803
0f0df209f9fff5f6
eef705fdf8fbfbf5
f502f1fa0304ef05
09fb0ff6fff50306
f0f00cfe0c0df10e
fbf4f1fdf0fbff04
fcfcf906faf708f1
fef9f012fc0309f2
f7ee05fb0af40908
07f30908f20cfdf2
010204f3fd09ee05
fb09010401fc080d
08f5020cf706fdf4
03edf8050200fb07
110e0b0ff902f205
05040d14090efe04
fcfff50307f6140d
030105f30305fcfc
10060beef2f60804
0a0f120df4fe000d
12ed0206f70b0d12
f60a0210f40eeff7
0a09f2f80509fd0a
f7f20e0b0007f403
ebf10ffcfdfef801
f003f4f30d0004f6
0ffa0506f2f5f1f2
f4fc09f80d11fa00
02f808f5f1fc07f1
f6f7fef6090fe90f
0d0bfcedf406ef07
fa0600f5fe01000c
0ef4f50912f4fcfe
10f5f50f020a0cf7
130ff00403ff05ed
020b0312130d03f7
13fa05faff080d0a
fb00f3fc09fbff0b
10f8f60bf1fc02fe
fe05ee02ed05ff0a
04f106f7f611f001
0f0af10aeff8eefb
0906f9fd08f30705
fefbf8fa00f0fb05
0e090b00fe0e08f3
0af00807f7ef0a0c
effbf50d0302f9f3
fc05f502f5f804f5
0a03f209f9110f04
f20f070d11080c0b
1102fa0409fe0706
f5fdfff1eef90bfb
0e04f8ff0df903f6
fffffb0304f2f313
fd02f405f1f412fa
08090c120b0ef6fc
f311f20df106f206
170dfc000cf6f9f5
0ef9070efe080302
0902faeffbf1feee
0608fff9fdf8f2f6
100bfdf80dfff3fd
0d0c04f2fbfefc12
0ef000fff5f6efee
f3060bfd0e0d0002
110008f908f4f501
0108040afff2f50d
f80d0003f303f20c
ff0afbf2f408010f
f0fe0c0bfdf3f8ff
0303f0f70308f4f8
faf9020af5f6fef6
060bfcfcfbfe01ef
03f60cfb0df311f7
fd0bfffd020a0aff
00030a0a01fd0dee
fc0c05fcfe020401
10fbfe0006fc0b05
0df5f3050202f307
08ed09fbef0c03f8
09ef06f608f30701
14fcf609f0fc0e0b
ea0b0a1206fc0b03
f602050aeff6f80b
05f40d0af107f701
0909f4f30500f200
fb0bf50c01fef203
01020bf1f6f70bf2
10f5fcf906020d0c
02fafc0ef90d0902
10f3fb01fa0a0ef3
000e0dfd110d0ffc
fef1fe0000fb11fe
f30403fafbf30ef1
f400ecff0afcf803
02f409f50c0106f9
f004f0f5fe070304
070df50cfbfd01f6
03fcf1fdfff3faec
fa07050a13fa0e0a
06f200f4060e0011
10f3080efcfcf807
090b0cf60cfefe0c
01ed130bfc08f30a
11040205f70cfb02
05ff0f03f408fb09
0709fa04eff5f1f2
fd0dfafb040f0601
fbf60102f10efef1
fb0af6fa08f3fb10
03eef7ff0cf902fb
fcf1efeceff2f900
05120bfbf20ff9f2
07fa030009fb1208
03f3f00e0bf301fc
0bf9f10bf402f1f2
fc080209fff6f2fa
f610f409020e0805
10fafafa060af5f5
fd00effaf3f4f7ff
0b0c090ff50b1407
06f7fc08fcfdeef6
fafafcfcfb060af7
02fdf2080b0cf4fa
eaf9f5f30eebeef2
faf8fcf3fcee0e07
000e0300f80cfef7
fceb021210ed0909
f906f5f3f7f0070f
090003090e070efb
