e422ef20e0edf8d8
16110221d0e72bd0
17ea1f1426ff0a03
0821d61707021ff4
1a13fe0a0909fedb
fceed7031cd60fe6
e0321cc9fa0f05d6
02f9ed17fff3eecf
f0f8f1151d0f1421
10d81a0cdde70016
14f2111e1e0e1104
dff32ef71cee02f4
20bbfcc5d1ff07e0
ed000e072cde1c16
2c21ef2015f200f6
02de1bf9d7dcd923
1e1741e90aee18f1
e9ff2efb1915d61d
fd39273a131cf209
00fafddceece091c
3725e6ea2315fb1f
fa100010e70e0311
f508f5edff021405
e50d28231a13e7e3
cfe715f9da150805
00f1e6f3291ad904
dacaefea1606ef0a
23e00fe10a170bf4
f60ef6c6e3e80b29
1e0019db25d92018
f20207ead7f106e3
1607fff92d2b00f9
d01ef81f2418f4e2
19e203e62011ebeb
d5f60bfa24f00416
1afc07dce62f25e8
1ebc2113fc060b13
1b240be502eee51d
c4dcddd71bfd1422
0602d226c822fa1a
22f3e020d5f00e11
1404d8f612edd7cf
1efbc90f0414ec24
ea1501f313d71809
ebfd06ddff0a18fb
09dd11ff142ce1d4
c11ab8350dfe16f0
0900e1e8fed1d7d2
