df06fce2df01f7f2
f0f6f2170cd3ec1e
cde3c4d103f10cd2
ef1d0a01d600fde9
22d3fc17def50209
fc000ad7ded922ee
30f32f1b260f0e28
18f1ee201be5e0d8
19c2cb0de91c19e6
fae52edd27210ed7
17214025fd1c080f
f1db1c21fd2cdf00
fe2912f1d7edea0b
f80ee4e7ee1ce7e9
f41a31ff1df308e3
eb211c0f0802daf0
1214c30a22f412f6
e1141b1b34ede9f4
1f06edff0904eef4
e008ddf2f606f004
e93943d0eb040916
111324062c302802
d90fd223f2030fe3
1c21f3211fdd251e
f9f40306e8ef1adb
08181c10dced1009
08081fe5e6f4fe1a
1422fd24e5cbf727
362bf719ed07fd19
df22d007f5260ce7
07e9121aee0508ea
f007ff1f0be6fcd0
0ac717e3e20ee821
0f0ad9f0ee0fea1d
c8e330fdf50aea0a
1a0615281009f608
3748e9def813e60c
152703f8f3d0f72f
e73c05c7e7feec07
1f1fed04edf0e9f7
0216393a181bea21
1d07ffeadc2fd8ec
eb10280df3f6080d
ef27d1f6fb04d4eb
11bc1a30230e02d7
e92d072027f10a0a
041ce6e90c1aea11
e32419f11a02f7fb
