e22822f4effefe09
e0d6e411d6d1e3fb
3206db1edc15e7da
020f1af0f0d9ea23
10cd0df5d3f6e712
fe04da2612f30f23
d226140d0217f6e5
17ee0121f81bf111
f71ec9cceffb00f9
e0fce422d931dad5
e9d50529e8041203
ea04cedf34f71dee
fd2af7dc25e802d7
edfb12262e1df223
fbf443e320e6f603
ed08fd21d02bdfe6
2ff84433d8e50e18
fe071afac4f9f804
f8c8f62b18130909
08e3ecf21cf11ff5
28e1cace06181632
ed0a2a1e011228d2
28f3d42518121910
1c24fa22c8ce1704
fcdfc7d415e71cef
0c181727cc231020
07473ce30efc13d4
15252a002f2009da
1cc52f19fc1af313
21eaf9e63521fefd
2a0fc4d2e4e70afb
ff012a0912f71414
f1ddd2290f12f519
0507e21ef62220d4
1604ee3bea0d0526
21f8da24eedb1912
c9e4d5f5eee301e9
f7261d04120affd6
09020bf7021b0803
e907dde8fe181acf
0214e502f8f00b1b
1be7dd1108e6deef
0526fe0bfbf10bdc
e9ef1cf31b00df28
f8e2121724fe01f2
18efeede1bdf142f
0b3dbfd0e81512f3
fe261c0ee4d1d6ea
