0509040bf40b01f6
04f90908fdf3f800
0afbfcfafdf9f6fc
0ff9f4fa07fdfefb
0502f7fb05fcfd10
f90c06fcf7ff04fe
fcf608010bf20d0c
0800020afbf5f507
07030305010c0dfc
06ee09f4f9fafd03
f8040afaf4ff01ef
0dfdfc02000e03fd
0014f5f40b020103
0107f6fbfb0507f2
01f7fa0e0904f8ff
f4020a10f7fff8f1
0c0a0707fff4ffeb
01f2f808fcf10af2
0607f00a0b0704f3
06f3f4fcfa0a080b
f60cfefffa140304
f8060b060007f3f5
ff04f2fbfcfd00f8
ff07fb09fe09f40b
fe13f4f6fb0303ff
f703fff1040a050b
fdf901f808090df6
0108fc0b00f5f2fe
fe06fa090d060910
f8120bfd01f3f700
0401f4f4fc08fa00
02f80aff05f6fdf1
f6eaf9f2f4fcfb0d
f6ff0cff09fcfffc
080af8fdf70a06f8
0209fc07ef0cf504
f9eb03fcfdf7fefe
ff09fa08f405f3f4
0802090907fff305
f6f9fef4f20a0bfe
fe0ef8f200f4ff14
f70b00f701fff602
0801f602f7f10501
f60bfa08f402f707
0b0c0af4f10e07f4
f5f30000faf80103
08f5f10900000608
fd09f6fb0308ef03
f5fafb020cf5f809
f40e02f102030402
fff7fffffef702f6
fb0cf70bf20b0301
f9fef70a090d0410
08feecf2f40bfb04
09f7f00602020501
0b0400f103f7070f
090bfc04030afa01
f7fafe07fcff0d0a
fdfd00fe0900f708
030904fbfbf9f3f4
08ff06f80df2070a
f6eaf30a0603fefa
00070cf201f20e06
0402fef9f10c0501
010cf5f10301f902
06fa04ff0ef3fe00
f404fdf10a010af2
f109ff08f6fd0cfc
00f9fef6f70800e8
fe100002040908f8
f6ff06f5fff1f5fd
f102ffff0103f60f
f5f200f80801f212
f5fbf003f9f401fa
fcfff2070bf50401
f20cfef0faf7f6f3
f6ef03fdf4f401f7
0609f00301ff04f7
fdf7e9f4fc0805f6
fc06fbf60f07f509
0305fe06faf309ec
f50b0206fd060507
0c0bfa0501faf70b
fbfb0900fefd0d0b
0a03f8fc00effe0d
fa0dfef607f40001
0cfbfafe0807f2f2
02fe07f905fcf9f5
0cfff905fc06f40c
fefdf6f50104f1fd
f708eefaf508030a
f3effff90306f6ff
07edf40406f400f0
0612fd070803fe01
f9fd09fdfef4f6fd
0ef2f602f0fbfd07
0deefc0b0cff030c
01f1fcfdfb0003fb
ff01000003fbf909
0cfd000cff010bfc
fef70802fe080810
f705ef06060cf5fa
fe08f20f0301020b
ef0bf5f6f9fdf5fd
0410fffb0905f6ed
f4f9fbff0af80afc
f90d0f040bfb03f5
fb09ff0cf902f709
0af50afff7f4fafc
021109f109fafefa
09fa010bfef6fb0c
fffef8ff0a0107f2
f70107fdfef10709
070c07f5080307fb
fc0ff402f7070afc
f3ff02fb06fc06f6
020afb060b040001
fc0205f50bfc03f4
fe04f50b01f4fbf6
0a030bfaf7020101
fb07090907f100fc
000fee0903f8fc09
0100ecf406fef400
00fa09fb05fa01f6
0c010508fd000708
fcf4f20906f400f4
05f9100bfe0306f2
0d09fcf2ef08f505
fa10f30208f200f3
fbf5f5f30c00fa02
f706010304fff505
fffbfd0d00fa0305
f90c01fcfffafff6
fe0af1fa00fa080a
f4f20df8f7fcfaf9
fd00080601070209
fdfaf5f60505fd03
04fe0000fb08fc03
f5fcf6f9f7060b03
f80b070108faf4fb
00eef50204f0f9f7
f4090af40807fbf2
020b02fd01f7f8f4
040504fcf90800f9
09f608f2fa01fbf9
fd00f90af2f4f406
f6fa00fe030bf90d
00f4fd0402fd0806
f515f904f40bfb0a
080803f30a0cf505
ff0f0c04f30702ff
06f00508f801010c
02fa07070eee0711
01fff4f2fe0300fc
fcf60ef4f4fe010b
060bfff8fbf3faf7
0a10fd03fd04f510
fcf2f8f502f909f4
07090302fffcfb0a
fc00f8f912f4f8ff
f30600fe02fe0404
0304ff00fc0af6f7
00f707f1fb0afaf2
f501040ef605f1f9
02f6fc0707f5090b
fe0ff50afdf90405
020ef50207f8fe00
0cfef8ff0106f905
fdfafdf3f70a0211
08f7fcf301060aff
0906f9f005f8fef6
0303f4080706090e
01f302f20f06f4ee
fdfbfb0400f4faf8
fbfa0bfe0b020600
0c00f7fa0305f708
0a10fef304f2fa07
070507fefd0b04f9
00f8f1fef3030407
f205fdf9fa06f9f6
f50a0a0c06100afc
01f8f401f7f4f8fb
fdfa03f8fb010009
0407f5f4f3fb02f0
f402050bf7fa01fd
fc100bf60a04f7fb
f6f90af600f20309
eff40b02f907ffff
f2f1fff5f509fdf2
f9f5f9090609f604
03f812fc05fef9f7
0106f5effff30105
031007fefb12f408
0a12f7f602f7fa07
01fd12fafe0b0802
05fc01fafdf70efb
0408f309f4fff8f3
090bf2f4060b0602
f30becfbf6f8010a
0604080b0cf5f1f5
fd08010a060ffd06
fcfff50cfcf8fefc
fffcfff8f306f402
01fdf500fc0bf404
f8ef01f70a0cf206
f8f50106000ffb0a
fdf5f90509f107f5
f60404060c0605fd
f6e9fb0c070a020f
fcfbf3fcf5fef7ff
f9030409080bfbf8
fbfd09080c09f70a
09ed0001f6f001f7
f5f2f904fbfcfef2
f4f803f40304f102
07030cfdfe10fbf5
fa0cfef9f4020a07
f211fff2fb0afafd
02fcf9070507fa01
070704f9f9ff070b
f3eef3f7f6effaeb
01f6fa0209f300f9
f8f701fff3fbf9f6
0803fbf904fc0105
fe00f2fff803fff3
06fa10f8f2f2fffc
f70cfb0ff5080900
f904fff90a04f7fa
fafff800ee050bf5
f600f6020704f4fd
0b0213f704fa01fe
f60105080e03f7f8
0d0d05ff05f700f3
0cfffefe0efa07f9
05f800f9f40d0b0c
f5f8fd0b11f70c0b
080008fa0500fd0a
f9f50df7f802f708
09fb0a00f5f20702
07060701fefb02fa
fd0cf7f6ff0ff405
040d08f8fe05f506
030900fbf9000c0e
f602f9fc05f9fb0a
fa08f9fa09f8fb12
f6fc0ff7fdf502fc
03060608020301fd
f5ff02ff0cf80214
0eeff801f90dfef2
ff06fa00fd000b05
01010b0b00ff0c0a
09f6fbf30ff90cf5
0b0a07f2ff04ffeb
fb000bfd0400f608
000b03f4ee0bf201
10f2fd02f303f902
0503fe000cf6fd11
f40f0406f4f7f7f4
0805f9010501fd09
fbff0df6f202f501
000b00f4f4ef0607
f907f1010107f4f3
01faec01f6030809
0dfc060100080705
fa100302f7ec000d
fbf3fafefd0ff9fa
01f7fb01f2fa07fd
f3f905fcfffbf7fa
fbfbfb0409f4fb0a
02f5f8fcf10606f6
02fcfe080901f6f6
09ff0709fe090309
0aeb050109020c07
020d0b03ff020af4
fdfb0408fa060afc
fcfdfbfb0b0502f3
f70b08f0f4f2fcf7
05ffeff8f4fbf8fa
f4f70409fefd05f9
03fe0d0500faf208
f6ea00fb0b0608fd
fcfbfd060c0001fc
fe05f7fa07f8f6f7
f3f501fd010908ff
f714fc0601020109
0c01f8ff070afefc
f6f6080efe0dfb05
fe0804f805f9fdf3
f80ef8f6f6f9fa02
fbff0cf50906f905
f5fa01f80103faf2
fc00fffbfbf80600
0209f9f70b0bf208
fd00fff00bfdf50b
010e03f1fefb070c
f1f7fcfaf509f806
fbeefef401f0fa02
0907fcf30c06fb09
fff7fe070cf4fcf7
03f5f7f6fcfb0209
03f30202fb0ffc0f
fdfdef07fdf80702
010000f607f00a0a
f8fa010cec08fdfb
040b0a02fd070602
fb0000faf8f90209
04f7050102f2faf2
fd02f300fd0f0705
0908f5f4f003fef0
fa0cfbf5f5050304
0801f805f2fdf20a
01f508090103010c
f5060c0dfaf40af7
0604faf105fc0cfd
05fafe030806fa03
01f3f5090607f5ff
03fafdf5070e0d02
05eefcfaff00f609
fd0bf4fdf60d06fc
f8f7fbf90504ff09
030cf7ff00ee0104
02ef0bf6fdf6fb02
0cfb0f0a0b060509
040407010d0a04fa
fbf103f2fa020404
f6f21008050805f4
0503f207f5ff000b
f5f90bfa100b0c03
0207f60afaf1fbfe
00fb04fcfbfafffb
f806f4f606ff0101
fff3ff030603030a
00f4fbf5f2f509f9
f4f6f2f1fcff06fd
07f9f3f9fe070901
070501f6fc070af8
0a0a06fcf10307fa
02f202f6010208f3
08f9fc0beff50605
fbf6f9020706feff
03eefcfcfcf0fcf1
f8f4ee020b0af701
070dfd05f5f4fb0b
030001fcf60c00fd
fc0d02f6fb07f90b
07f000f60805f9fe
f704f903f105fff8
0400fe04effbfb0a
f3fc0006fcf4f506
030e0dfe0bfef607
f5fbf20df50c02fa
07f7fefc0cfef302
0a0b07f40c0efdf2
0810080006fcf502
f3f9f40b0703f5fc
00f40ef6120af2f2
f900fafef2f50a09
020cfa07fa0dfc07
f601f1050201faff
fd0501f8f60bf709
f4f3ff05f5f40400
fc020708090900fe
fc03f4060908fc06
00f70107fdf90afb
fa08050500ee0608
fafa01070100f804
f709f1f4faf104fe
0804ffeff3fafcfc
08f902f7f3f3fd09
fcfef90bf2080404
0efb0af606f207f7
0904fef2030c070e
f3fef8ff0810f6f2
04fa0c0501f707f6
03030dfaf9f5fff1
fffa02fe00fdf6fc
0c0bfdf70c090cfc
07ec07fdfb070004
09fded0805f9fcf8
0f0405fffbfd020d
0601f5fa0afd050a
fafbfaf90cf8fb00
02fa0109ff0b08fc
09fef90df9ff0b06
