0805f9f909f20000
f40c0405f60e0608
010cf40c0b04fbf6
f608f8f80b0501fd
fd0c07fe00f5f7f3
f6f302fe0504fafe
06f1f00ff6030b03
f00206f802f5fc03
f606f503f1f2f8ef
03ebf1f6fef3fe08
f5f406fff4f9f402
f50004f601f8f401
08fc0701f7f1f7fa
02080cf5fcf7fff5
fcf80b03ff01f508
0701f90505f60a0b
fd06f50b060cfbf8
09010207f8f3fef3
fe04ff0803090bf1
f3fa08fafaf308f1
fdf108f900fa0eec
ffeaf40df208f3fe
0209f5fa00fcf9f4
07f608f3fd0d000a
f20cfcf9ff06fd04
fa0702f9040509f7
06f4f5fa080dfe0b
06f2f8faf8fdfc05
0efbf3effb0af3fc
0cfbeff6f6f3fa08
f8040ffafe1004f7
f9fe07fc0607f3f1
f900faf8f6030bf9
fc000af5f30efbfe
ff060dfcf1f8f5f5
f8050905f30e00f4
0decf4f2f1ecf812
01f7f600070504f8
f2f50b03f804fa00
07fe0700f9fe0304
f7faf9f7f20bf7f0
000c0af7f709f808
fc06f3f9f9fcf5fa
09fdf9fc02070b06
fb0c04fffeee07f2
0afff5000b0709fc
fb05edf3f309f206
fff407f405fef102
06030901ff0808f6
f6f006f8f8fd0502
fff3f009fc040803
fd0506f40507fd08
05f3fb0b0b01f20c
060b03f80a00fdf8
f8feecf7faf2f804
f00c04f4f709f802
0902f804f70efdee
0900f2ff09faf4fc
0602eb0a00f20506
f7faf90d0ef404fe
07f30706060a0705
fef2f6f9f80e09f6
01f70505f9080cf2
fffe0200080a0a04
0f0e0103fc05ff12
000b09f6fcf40102
090deceefb0504f7
f4f9fdfefff504f5
000bf909fafcf7f7
090cfdfbfcfa03fa
0801f603fd0a04fd
06fa0005f10405f4
f1f30006f6f8fff6
fef6f7f600fb0af5
0004f30c0505fffe
f60508fd06fc07f7
f307fef604ea050a
0411f9020210f808
f8f2ecf3faf60906
02040afe04f607f6
fcef04f40bf8f309
fdf30b09ff000405
0404f2f30f00fc04
0504040b00fa0cfc
00f7fbfb05effd03
02ebf7f9fff8fbf6
ffff0704fbfb0303
fb0306fe080607f8
fbf5060505fa05f1
fafcfd0703f202f4
fd08ecfcfbfcf901
08ff070df507fdf9
030c08f605020c09
fcf3fa00fa08f6fe
f7f4fff6f606f8fe
03fef9f5f502fdf7
0bf1fafb01f2fc0e
fe0a0af80a09f6ff
f3f7fafcee0cfdff
fb0104010308f404
faf806fe06fdfbf4
fff4f80208f6fa07
080af70a090a09f5
f2fcf9fb11fdfa0c
fb0200f6f8f0fbff
02fb04f50407020c
0200f80bff0cff09
f205fa010301f508
0b0704070bec090c
fffc02fa0a0afbfe
0a000b070bf30cf4
fafcf608fc0102f2
1116f9070408f20d
0905f3fefcfbf9ff
fa0cf2f506fa0a02
0a06fe09fc0e0708
00fff6f30aef0aed
fcf608f7f705fa09
020805faf4f6f404
01f7f801f60508ff
f11108050a00fd00
f4fafdfd04f901fe
04080b0509f402f5
faf600f6faf20af2
fef9f508f90ff5fb
06f4010b07fff6fe
00fff9fe0805020b
0402fff1fff505fd
0df407fdf6fc0406
0defee000508fef8
fe06fa06fd06f5ef
05f8fdfdf1fdf9fe
fefafb0ef8f80a01
f7ed00000107ff05
fefb0afef9f7f5ff
07fef4070afb08ff
02fc09f7fdfe010d
0700f4fe03080802
fb04f1fbf5f30b01
0a04f5090c0d0a07
fe0904ff06f9f6fc
f6fff203f7faf307
f9060c01f10df607
f7f906fefdf8f601
f0fffbf90bfa010c
06feee09fcfffdf2
f400ed000509fffe
f4fdf803fe0209f3
01f6fafdf0f407f8
040401010c01f8f3
030603eff00709f6
f9ff070cf80b09fc
09080c0405f9fef7
010ef4040bf9fe0b
fe0af306fcf8fb03
fbff08fefb0403f2
fcf8040304030705
060001fffb0701f8
fa060804f6f7f609
fafdf60203f20709
0c0ef7fff1effcf2
f4f1f5f505fdf6f3
020ced05f2f20501
0ffcf502faf6f709
08f8f6f5fb100213
f7ecf70409fdfcfe
040af7f50af9f8fa
0202fe0f0b05fa0b
f903f7f7fd100d05
08ed11f608050405
fa080b02ff080704
fe0af7fdf6000bfc
f8eb07f8fa0801f2
f9f6f8f0ff070804
f7fd00f5fdf9f206
02fdfe01fd0ef9f2
fb0e0102030dfefb
08ff08f50afd0707
03f40af403fa02f9
09fafc07f307f401
0405fcf9f00c09f6
fdf20f01fffc00fc
07f3010afa0505f3
f9f7030905020702
faf2050d0604020a
f51209fefaf20906
0a05f0080208f30c
01f7f90200f903fe
07f2f9f8f80e090c
fffd0cfd00040805
01ef00f503030a09
f7fefdf309f10802
f606f503fb09f608
0105fc09f605fcf2
f5effd01f600fd0d
f3f90c04fafb02f3
fb0308f6feeff608
070703f3f7fcf3fb
fdf80a04020df3f6
0df608f4f6fffeee
080c05f70d150b05
0211fd03fcf606fe
09f207090006f60a
0107f4f20305f8f3
070afef8040e09ed
0002edf6f3f8f709
05f801fcfbf3f7f0
f103fdfaf90df611
fef5fc0af401fe03
f4fb00fdf7fc0902
f5f3f203f4f100fb
fe08f6fffefa04f9
02f7030600faf808
010801f601f604fe
f1f90cf8f0fbf50b
0af6fb09ff0a0104
0cfc02fe0bf0080d
f6edf9f402ff0203
fbfe06100dfe04f6
03fb09fcf90305f8
fa08fcfb010606ee
07f604fef700fef8
f0f8ef00f002fcf2
14f205fe0cfc00f6
0001f7f509030107
030ef6fcf7faf9f5
fc020dfefa00f702
f3ef05fff908f7ff
fbfc0c06fc0f0c06
f50306030a07050e
0afbfc04080bf7ff
0509fff909f10004
f4fcf6f4080f0205
0205fcfa030104fc
060a080606f6fdf5
04fc09030a0002f4
fd06f60e0ef7fa03
fa10f40c06fa0201
01faf905fe000906
05fefc020704fffe
0c0503f3030dfcf6
0510ee0902fc0a02
f30703fe010bfcfa
0a0d02f60c0d0800
f503050707f6fa06
020d04fdfa03ff07
fb050405fdfcf9f3
100407fefd0dfbf8
0401f3f50ffa0702
f8eff206f80205fa
0200fbf4fc0808f7
fcfe09050202020b
0ffdf6f8f708f811
fcfff5060209f504
f40c0efcf7f507fc
f6f8fbfaf1f4f4f5
f91000f1fef0fb03
f8f6f608f20cf9f9
0905080dfcfc0200
fefb09fbfefa0df1
fc11ff0808fa04f0
09ee000807f8fa02
070a0809f6fdfdf6
0bfeff0c04fc0706
0907f7fa0ff801ff
f51102f9f3f5f4f3
08f70b0bf2ff090a
0600f803020209f7
0d100001f4fcf303
090108f9fef6f7fc
fd040f00ff0608f5
0e060107fb01f50b
f3f8fd06f8ee03f9
f30d0b010705fb03
05fd01fe000a03fa
07fcf7f1f30cfaf9
f3f5fe08ff02f7f4
08f5f802f8f9fb03
f101010a0b0cf40c
f409f80803fb0b02
f805f904f90807f6
fafb09f6f3f9fd06
f9f501080a010501
01050beffe08f902
01110605f8f3fa09
0cf6fe03fff7f501
fe07fa0e0c0df605
f902f7041000f50a
0b000804f40900f2
09f2f9fd03f0f809
f1fffe03010df705
f5fc0000fa0bfd00
04fff7ecfbf2f0f9
04f708f50dfef405
01faf1f7f60df709
fe08f90afc05f8fa
f400070bf70104f7
f90c06fbfef6faf5
f8f400f30afe07fd
f6f506fbfffbfa0a
f801f7fef9f0f2f7
070b04f804060209
fe07fe0405fffbf5
f90405ff07fc030c
000afbfdf9050003
fbf2f60401fe0afd
0609fdf0f4f40aff
01f8f9f5f5fcfdfb
f60dfc03f7fafb05
0608f602060403f7
0709f9fa070008f8
f9f7f801fb0af509
fef7fc02060b03f4
02060409fdfd0a02
faf6fdf4090507fd
0cfdf9f4fdfb06f2
f8010afcf10bff10
fc0d08030401050b
fc02f30c01f800f8
0bfef3fd0210f904
0106fdfa0a01000e
05ff0e0afff6fdfe
0dfced02fef3fc06
0bfbf9f606f3fff8
03f202fc09ea07f6
050e05f7f6fdf6f6
f4f706fcf1070807
0cf90bf50207f603
fcf30801f60c0801
0601f4010b010109
fefb0208fe0d09f3
f5fb00000efa04f1
ff02fafeeff9fd05
fc050e09030ef3f8
05faeef00c0007fd
02f7fbf106fc0306
07f8f3fdecf70507
fa0b03f0060108f7
f9f9ecf402f9f9f2
10f0f502fffffdf8
03f901f109fd00ff
050e040b03fd04f8
f50c0dfd06fcf8f9
03f5fbf9fcfe0804
fe080a0a04f10310
f904faf408f10301
0703fffa0302fb09
f4fdf506f20a010d
fbf700f80b0005f0
0702f7fc0af4f3ff
0210f001fb0efdf9
0507fbf9080903fa
f50cfc0607fffcfd
f705f30208fe08f6
fffdf402fb09fcf5
06fa08ff05fdf9ff
0110f906030cf5f6
06f5f60002040a07
f90d05f6080006fb
fffff80cff06f8fd
f50008fafef704f7
040df1fcfbf90b08
ff00080cf2fcfd06
fdfb01f1ffff0bff
fff60c090bf8f7f1
f5fc12fffffd010d
08fb0aff02f3fc07
02f4f7fe040a0907
f2f8f80c08f8050d
faedf902ff0cfb0d
f7f705f9f6fefff2
f10000f705f60cff
06010402f801fbf1
060f0ff6f504f306
0001fe030205fe0b
fdf4fc0007fc0a11
0110ff0408f2ff09
fafffafd05f3f506
08f5ecf109040508
0f04fff40c00f806
0f0efefbf1f906f3
010e08fa04f8f200
f2fafd080a0b060c
f202fefbf6080507
