0400f2fe01faf504
fb06ff0a08090109
0cf501070ef00005
f701f906f2f8010e
0409010407000813
f7f2000df50bf308
f7070ff7f601090e
040106f4f20604f6
0e05fafbf7f30708
04fdfa060b08fbf3
0dfc050dfef609fa
f9f6fcfdfdf20608
fe0707f7fdfc0906
0103020b06f7fcff
ff02070df806f9f4
010706fff1f5f70a
f6f606fefe0a0001
0afe060001fc0a02
0b0cff06f809f8f8
00040504f6fef7fb
f30301fafc0c02ec
f2f7fffa03f4f801
fcf90d0b01020200
02f9f9ff0100f310
0b01f50805f2040a
0400fef6f8010503
f8040df2fd01fafb
0a0702fe0ef7f4f2
03f8f303f9fff703
0ef1edfc000605fd
04f3ee090b0502f4
010b0200f10a0a0c
0510ff06fcf900fa
fbf70603fff60af3
f4051010fb0bf904
0908fef7f200020a
090804f4090804f4
07f90c07f703f9f6
0400f311f8ee0afa
0ef502f8ff0104f2
f904fc08090ff702
f4fcfb03f800f502
01fc1307fff8ff08
fbfb08fa0c07fb0f
0607fe0b050300fe
08fd0c05f907f6f8
0400f8eff10b08fa
fdf9060e0408f502
f500f4fc0cf0f90f
fbf9ecf1020404fc
03fd09f6f50306f3
070501fd0a0bf70d
011005fc09eef3fe
fd0eebf40c0e07fc
0100f30705fe0002
f00b01f6030df806
fe0805f6f605f4fa
fcf3f00101f6ff09
07faee030209f7f3
f505fe0afcf8f702
00fc09050a04fb0f
fe0408f4faf3f90b
0305ef05ff020bfa
f802f90df3f604f1
0ae904fd0df1f2ff
00feeff6fa06fcf6
02fb09fef6f908fd
f704fff9f1f2f603
06eb040908f9f9ff
06040e060efff300
fd05050e02fcfc07
0aff09f5faff0bf2
020705fe000ef4ff
0010ee000b07fdf6
f507fa07ff0b0bf9
0702fefcfafe0509
040602f7fd03f9ff
fe0ceef2fd0a0902
02f5eefaf3fbf8f5
080df50200fff60b
fbf400fbf9f1f20c
f800f105fe09f9fb
0909030008080401
effbf4fcf7fafb02
080e03020c07fdf8
f905fef703fffbf3
02f5f302f0f4f7fe
f5070a08f4f604f7
02010aff040ff710
03fafcfb020b0507
0706fef70df7fdfb
f80309fb0705f000
fb0407f20bf2f60f
01edf9fcf9f20106
fefef6f0f20afcf5
f7030afe02fcfe0a
0c1405f9fc0d0209
07f70207f5f1fffa
00ff0d0b020000f5
00fff7f90bfbf5fc
f4fcf9f4ffff0603
f6fc0700fe06fe0a
05f7f5f2f6f9fcf4
00010a030ef5f610
fff5010905fff401
0305f1fd0508fef9
fc070df1fef8ffff
fd00fef3f804fff3
0907faf9fdfcfe02
060efe030af10a09
fa02f3f6fb0a010b
04060209f7feff01
06ff05f8000c060e
fc08fa02f7f9fd00
fc00fd0800060409
f9f8fe0f0203f8f4
fc0bf70300f3f8f5
04eff0fe030f0408
f504f60bef05f502
0c050706f31000fb
f7f603060802fdff
fdf6ed0af809fffc
04060305fc060af6
f202f9020c080af1
0b01fc0b01ed0bfa
fd0704f8fff10501
fc05f5020e07010e
07fef4f0f30309f3
0bf2f2fa0b05f407
07f3fa05f9fb0a02
fa0509060af10d0a
01f707fc0808f600
f50d01fcf0fe06f0
f70cf10200010402
fd070f0707fd0d01
07f6f80003fa01f6
fa0903f60af6fd03
05eceefe0c08f4f5
f8fc010c02f6f809
0205f600f0fdf40b
f5edfb03eff502ff
03fb020af9fef5f6
0902f2fd04f1f40c
02fafe09fd06f9fb
fbef0203fefe04f0
fd08f0fff6fe0100
ff06f401f6f9fa02
fdf40002ff03fc05
f60ef1fcf30e0605
faed03f4fff5f402
0b070405080806f6
fbf707f805f60309
f9050a05f606f60b
010b01fb07fffaf4
f605fb0cf4fc07f7
f5f7f7ff01f9f7f0
fb00fafe04f0fe0b
fe0e0600fa0301fe
02030802fc05080c
fcf706f9f7fcf50e
0ffaf6f30903090e
fcf5f009060df9f3
00ff0008f8f6f6f9
0b01f7fd0bf806f8
fafd09ff01fefef5
fcf2f306f6f9f607
f9fefffbf5f8fef7
00fc0af7f208fbf4
0004f7f50af2f7f7
070f00f40a07f807
00fe08f407f8f705
00f5f90009f6f203
080407f7f9f5ff0c
fd060bf500f6f607
01f70307f2f0f802
0bf404ff06f8f100
fd00f706fbf5f6fc
0504f4f4fa0a030a
0709fdf0030809f6
0a0b00fff8f6f0fa
f2fafefff60907f5
f8f00ef601fff404
f80808fe05ee070d
1000fdf1f6f908ff
05f0f6fa02fffeff
04f4fd06f6f7ff09
06fff6fc07070801
05f402f1f905f300
f207050cf302f412
f9edf8f4ff0d0409
08fd1004ff08fbff
0808fffefb05fe01
fdf0f60cf3f6060e
f5f8f70ef50000fd
f7fdf5fdfe0800f8
fd05f8f1f20105f4
fc0801f0f5ff0d0b
01feec0908f1f604
f207f00706fef9ff
09f7f506ef08f303
f4f1070605ff0bfe
02080f040401f5f9
f7f3050cfcff02fb
f70706f60af404fd
06f509fc0309fd0d
07eef102011106f9
00f51208fcf0fa08
f00203ee06f9010e
fc0f000a0412f9f5
06ef060bf60602fd
f404fdfc05030401
06fbfdf4f9010805
0af0fc080c0f05f4
fafffa05f6fffe02
f50205100504fe02
f3f5f6f3fb00f50a
f60505f4fc0dffff
f4f60009fdf4f8f4
0203f806fff105f7
f908fd04fb070305
0a0bfcfffe09f706
010cfc0908fafc08
06090cf2f4f3f5ff
04f4010a04ff0a01
0d0bf2fff603f8f6
0b0c0e0600f30502
fa0506fe090600f5
010009fb06fffff6
07020b0004090003
f5ee0a00f8040908
f901fffb02000000
f503fefbfdfc00ff
f5f9f603f9f4fa02
fbff0f09f90cf9fe
0806f2fafb02fdf6
090bfa050700f9fd
09fc04040114f903
07090107f5f1f901
f4fc060cf701f9fb
fc05f7fd03f10106
0903f80c0303f3fb
070b030a07fbf5fd
0000fc020af8f5f7
fb090603f4f90607
f804f40300fcfbf5
f805f4fdfa0003fd
080110ef060105f5
0afaf7f90b060108
f8faf5fdfef4f805
ff0607fc05f10bf9
fb01f4fdf1120708
0501f8f10dfd0b07
fd05fafb020dfe08
05f0f8f805f4f6f9
fef3edf704f90df4
07f30506010301f5
0505f50b0b070a0d
fbf6010303f607f9
f7fa0804f602f80a
fb07ff02ef0dfef4
09f6f906fffe00f7
03fb06fb0efcf4f5
fef6f80207ff0ef4
f3fcf804f1f8f9f2
090905f30ffdf705
fc0c0a01010c0afe
ff000d00f7f4fdfc
0800f6f0f50dfc03
f3edf8f7f7fe07f1
0600f5fcfcfdf6f5
ff090ef8fff8fbf4
0cfb0a000d0cff08
fbff090205f40800
040609f9f2fbf5f5
01f70d0bf2f3f605
f701f80afafb08f3
0804f9fc06f6fd0e
fb0301ff03f7f5fa
f20200f7f6f507f9
0b010908f109f7f4
f5f006f801fc07fc
f50f010101f10a08
06f20af7f40bf60c
03fcf6fbfdf8fdf7
0cff0908fff203f3
0bff06f90d02fff7
02fd010103010d09
0ef60607f4f6f7fd
0003f506f9fd0803
070afef8fa0d0104
fffbf6f20904fa06
00f10904fdf80afe
fbedf4f70af1fd0e
07fe0400fff2f704
0afe00f50c03f608
0800fb090b05f7fa
0808fff6f3fc02fc
0bfbf8f9ff080201
f2fd11f9fb0c070e
0b01f6f9f8070509
0708f9f904f80bec
05f5fcf6fc0909f7
f8fa050902fefdf4
040602f9060c00f7
00f005f3fff80a12
fb0b0d08fd0df6f6
fa030cf0fd090af2
02fefbf109fafc09
ffedfcf7f207fb0b
f8f90c04fa0afff5
08fef804effffbf3
fa05ff0002f5f30d
00f406070bfbf4f1
f90200f6ff050308
f808f007f209fefc
f2f1f3070b0004fe
fa0d080700fc06f9
06060a0109030505
f3f508f40300f7f1
ff0309f5fcfc0109
f3f8020afdef06f3
03fe0f0203fef3fd
01f408f204f7f6f3
fcfff4fdf40bf30f
fc0ff7f40cfef4f2
0900f9050beef8f8
fa0303fd00f304fe
0206f8fef8f7090b
05fffd0406f9fc0c
0ef50707f70203ff
07fff109f3f50b01
fcfdfb0f0c06f7f2
07f7fbfd02f00405
0aff03fdf30cf1fe
f803fdf701f9f9f3
0109fffa0705f6f6
09f1f3fc00fd06ef
020210f00af80000
ff0cfcf8fbfe080d
06fdfc050009fbf9
01f6f2f6f4fb06f6
fb02f4f5060808f3
f9fffa0303f6fdf5
f4f30702f30afff9
07f1f7fe09f00b0c
09f809fe01020208
0af506f4f3fb08fe
0d0904f8060903fd
0aff01f4eff3ff0d
f4fefffd0604ff03
f70e08f4f40500f3
0c0004fef401f700
020bf2f70202f7fc
05ecf0fcf5f10602
f5fef4000f03fc07
09010af5fbf3ff06
03f005f60003fdfe
f609fffc10f6faf6
f60a09f0f7070409
fbfe0afd0efd0202
f9f30402fa0cf9fc
05f3010109fd0dff
08ff0ff5080af907
f9fa00fa09fd050d
fef4090107f6050a
f9f70f08fef10cf7
040b070401f7f4f6
f9f3f4050afcfbf4
f7fef9f8f9000611
03ff0108fbfbf5f7
0b000309f7f1fcf2
faf7f6f4040d03ff
010af5f7f7030af0
090cf50c09fff4f7
fe040af9f9fbf304
01f703fa060bfff4
f7f6ff05ff090afa
00f908f80300f307
fffcfdf601fa07fe
f9ff06fdfc090301
fcf40202f902fb05
0709ee07fafff704
0609f407fe07040b
06ff00f3030308fa
