ef09f8f1f8f306f9
07fef9f1fffe0409
f802ff0a01fa0bf5
030afa00f4fb0106
05f10406f7fa00f9
01fbf21005fafc0a
f4fd0310faf60904
0006fd08f3f4fafd
f802fff906f510fb
0609f2f6f001f50d
fdfa0afb03080a02
080af5f305f4fd08
f8faf7fffbf509fa
fd0dfe0efff6fb05
ef01fefe06080eff
f0f60afe01fbfef8
00f7fcf907fe03f0
f809fe0ef5f8f5fa
f9f504fe11fcfcfd
0f060ef50cf103fd
0bfe000102f80efd
f9effb0200f5050b
fafafd040803f702
f804fd08f0fc0b06
e9f5040e0809fcff
0a06f4f30506f909
06f3fbf7040bfc05
f1f7f7fff4f6040b
0006f302f9f2060d
09f7fdfd07f8edfb
f90bf9fcf0f6f8f6
02fd00fc0d07fffd
fff8f90700fdf3fc
fef0fcf70108f6f3
f4fef6f6fbfdf603
070af4ffedf5f6f8
fc06fcf7f6fe05f2
0604f6fbf0ff05f8
0dfcf7ff10fdf103
03fdfafa0706fe02
02030c100af8fefc
0b0107ff02ff0e0b
eaf909030ff80403
f508f5fe09f800fe
0102f6fafcf50900
04faf40c06f601f6
060c03fa0102030b
f10bf900f2f5fbfe
ef0a0af703f40dfa
0601f8f8f801ff07
0202fd03f80cf409
06f1080cfdfe07ff
f2f5030302f308f5
f40af6fb0dfbf207
0e0df502ed040508
f7f50f0605050004
04040a0f090b0602
0bfaf4000a0a0d0e
0a0604f20cfffefb
fffcf2110af5f40a
0905f8fc0a07f6f2
09f5f6060f03f20c
f7f9f5f602060700
faf20a05ebfb0009
f5fcf60bfdfaf4f4
f90d04ee07000b09
07f40905ecf90b02
f9f10dfe0506f906
faf003f4fafdf1f7
0af5f6f602f40605
ed0c040409090806
fdf4fff00cf4f5f9
f602f407f90a0600
010afe000008030b
0d030700fcf1fff3
fdf5f503f30203ff
0d0df50bfbf80c03
00f2f8010c0308f2
fc04060afbfcfd0b
fd040aef01fb00fc
05040a02ff02f7fd
0710fc080bf6f90f
eefa08f3f1fe05fb
f2f2fafb150bfefe
f308f3fb09faf9fc
07fd06050009f90d
fe08f9fa0006fa0d
0908f2f80e04fcff
03ff0ef40ef4f9f8
03fc0c03f1fb0cf0
0a0009fbf0f908f8
030704f7ff00ff08
fb06fc0809fd02f7
f40bf91001f50710
0c0803f2ee0207f5
f8faf205020206f4
f1f4ff09f50207fd
f80a05f4000107f8
edfc0706f6f70204
fef700f6ed0df902
03f402fb030e0808
fcf10313f0f6f101
fc08ff0cf70c09fc
f2f7f50704fe0707
fd01f8f80412ef07
f90201fefdf10c01
f9fdfff9fdf8f50a
09fb05fc09f9f7f6
020009020903f5f4
0300f7f6f6f5fcf3
0207f401fe0c0bfa
1006fcfc050508f9
fbf9f80cf70b03f4
06fcfaf604f40110
f50207f51008fa0c
faf8fd0c05f509fb
fe01fb080df4f702
f60901f10901fc00
fc08fa07edffff0c
07f606f10a0c05fa
07eff7fdf707fc03
f903f2fef4000b0e
f4f8f50300f30805
060bf60bfaf900f8
f1fbfff9fef7fdf5
01f6fcfef20c0303
fc0602ff0a08060d
07f7f4f6f10af600
fbf3f30506020cf5
01f7fb00fd020407
09fa0606070a0603
ff01f2fbfc07f607
fc07fef1f107fa00
fdf6040cfa040afc
fff7f90bf40a0bf9
0e02f802060d02f7
0bf4fffd00f60405
0c02f50c03000ffd
02fe020bfcfc0109
f2fdf804ed0afc02
f9fa070303f5020b
fff3faebf40cf2fd
0afe07f508fe0ef8
0e04fafdeff7fa06
fc0af50bf1f20a03
fef4080400fef904
0b0afc041404fefa
f5f80b0812110306
ed04fcf90afc0106
07fbfffb0bfdfcf1
fe09fe01000903f9
ff0200fceffe06ff
f9fff6f9fa04f6fc
0af30908f80c0309
0efdfff7f2f2f600
06fb07fef70602fa
0bfa02f6fb07f204
f6fcf9fdff0505f9
fcfa0102f208f9f5
fff7f90b0cfb09fb
00fcf50a070600fe
03f7fdf707070607
0df902f5f80a02fa
f8fdf307fd100807
09f90209f3f700fc
fbfe07f3f9f9fa01
fc0909040903fcfd
010206fd0b0104f7
0a0bf8fe070106fa
fd0d01f409090400
fb07000806f70cfb
eaf506fc00f401f8
fef7fffd01f5f4f1
0c0607070bfd02f5
f4fa02fc02f6120b
fffb010bf7090af7
fe03f7fcf4fa090d
faf5fbfbf2f80705
faf703fd010b02fe
0efef5fe0df50bf6
ff04f201fd0b09fd
fef009070a0307f2
ff01fcf910fe030b
eff3fb0b11100006
fcfe060efef5fbfc
f606f50af8f5fb0d
f60afcf3f4fafc03
0ffbf7fb040c0307
0308f9fc090bfefa
01f2fcfe0af5f10d
f0f5fafd0d0a0c00
03fa02fd07f50909
000804f3f408f901
f6070206f2fbf203
0605fa0afffdf7fb
f10af6060103fa0c
0bf60302f4000405
0bfbf8f50603f90a
f3fafe0802fb0407
0f05f0f0f20a09f9
fa06000afcf9f9f2
000cfe080f060701
eef5faf7f2fdf80c
11f4fef4070ef203
f801fcf90401fbf8
f70d06fff90201f7
0bfcf8f402fffdfe
08f409f20a030307
090100f403f909ff
f20a060903020404
ee0204fcf7060bf9
02f1fc11fe0001fb
f0fe01ff09fe0300
07f9090afafef9f9
0607fb06f60210f7
01f704ee0a1008fa
0efdfd08f408f80c
030705edfcf7f4fe
f9fffdfff601fef1
0cf9fd08ea000808
faf3ff0603fdfd00
f70805faff070efc
f1f0f8ef05f40a0b
0bfcf70bf901faf5
f209fbf0fafcfcf9
fc06fb02f4fffa03
0307f8fdf8f8f6fb
060efdfe070ef3fe
05fd09fbf9f6fd02
0bf602fb0304eef6
08f5fe060a020e0d
f7f506f5ea0af700
f50200030905f8ff
080d0b120cf8f9ff
f003fb09fc04f903
ed040001f0fdfef4
0d03f2fdf6f7f70d
01ff02fb05fa02f3
07f1f802f1f7f709
f6ff09fff3f8f702
f808fbf3070205f8
fefff91901f7f8f1
02060600f5fdf3ff
0204080df4fdfef8
02070b09fb070205
050007f10afb0105
eff4fd01fe01f6fe
f2fb0ffd1003fc05
0ef30a0bfe0207f2
f6f9f6f906fff209
fafefafffffcfc0d
eef4f9faef02f60a
ef0d070c01fc0bef
f5f4050d0ef80804
04040607050b0502
0e01f308fff1fa02
f0f904f10904f007
030103f7fcfa040a
09fcfeffee030106
fe050af904fe06fe
01fa09f7080b0c07
01f407f002fffdf9
0607f7f211f4f401
fa08f3f10401f7f9
f1fdf3f8040efcff
fdfa01f1f8f80a0c
f100faf911030604
f2f2070dfdf5f7ff
020700fc0111ef04
09f6fe0605fc0806
f10100f2f90a0907
07fa04f3faf5060b
0b01f50df3f2fbf9
fa06f8fe0ffbf505
effdfff714f60204
fffb0002fffd0007
01faf60e0cf9fafb
fff6fa09f5ff0c0a
f8f208ff12090505
f4f9fff2fd0cf609
fb02fd0201060af5
fbf6f605f5fc0d0f
09ef0b030a0b09f4
f009ff10050704f4
010703f40a070703
08f6f40401fd0c06
f80104f7f3fcf105
ec04010d0d09fb08
f30a0cf70808f6f4
02f5faf3f2f7010b
060aff09f2f6f206
0308ff03ecfefd09
f708f30cfc00f4f9
03f101eff303f10d
0afafb0608faf00d
ee02fd0e060d0701
f80608f904fff204
0b0e0af20905fa06
f10204050efd0504
010af80d0d0905f6
0dfbf707fef3020e
050af5ff0c0d0dff
eefbf606f0ff0a0c
ff000507f40ffafb
f4f9f4f7f4030cf8
0bf2fa0bfbfa0100
f5fc07030208fb0c
0a0204fefcf0f9fb
00fc04f30af20806
fe00f5f809020708
f5f604fef709f107
0f09faf4030f000b
07fcfd0ef0fafff9
f5f90603f8f3f9fe
04fe0400f10803fa
10ff00fb02f0fe05
020c05f9f500faff
03f7f5faf407f6f2
f001f5f3f50cf3fa
03f6f40af0060504
f6fbf6f8f302fc02
08fbf3fb0402f201
1304faff0d00f6fb
f000f903eff70303
07f703f5f60407f9
0bfe04f9f40e0704
0efa01f7fbf8fdfe
edf902f1020ff405
f302fc0ef704fefc
0afefbf9f40101f9
eff9f6f91000fcff
f10300fbf208f9f7
09040801fdf40a05
f90202fc03f60607
09fffff6020bf7f7
ff010608fc050901
03f209040c03faf2
0104ff0f04fa0d06
0e0b08000b0107ff
05f40206f8fff700
f8fffd0b07f3ff0a
04f6f703fdffff02
f9fdfe05edff0a03
f5000bf6f1f20204
00f50605fc050d05
f7faf5f9fff309f6
f005faf4070602fe
12f1020412fbf606
f0fdfbfafbfe0808
000502f1f407ff0d
0ff0f8ef0afaf6ff
0af2fd090bf9fe00
fefef5fbf203fc0b
05f602f90b020000
fdeffbf5fcf6fe05
0dfafef6f905fffb
fd07fef60105f8fb
08f3faf4fcfe06f4
080c0a0707f5f7f6
fef8fa0feefe0201
0709fa14f806f707
0903fff1fc00f302
fbfc0703eefd0e07
eef4f110ee0f060b
fff408f5f8ff0c06
fef8fa0af3f303fd
faf603fd07fefff6
0afc07fa1110fa06
f608fdfa08fff409
01f70205fd030af4
f4f5fefe10faf807
1001000af606fd08
fb04f90afb06000b
08030bfe0e0a0609
faf0fff3feff06f7
fbf303fb00fbfc09
0b030aeff804f0f9
0a01fcfd08fbf7f6
0af6fe0707fa02f4
f200ff0d030af207
09fef2f9fef6050b
08fc08f509faf1f8
06fffdfc1005f709
eff5070c10f6f40a
