f3fff80efe01fffc
050e07f8fb00f9fa
f20408f4f60bfc05
eeff0001000c03fa
fcff0c030301fa0b
f70203fafbf504ef
080b050200f8fe00
fff505fbfe0208fb
f00302f70104fafd
f6f6f8fb01000b04
f0f90b040901f903
eff9f6fc1005f604
f208070cf6f206fd
f8fbfef204f50502
02fdfd0708010207
ee09f704f700fbfb
fcfcfbf60206fcf8
fd09f70905fb0dfb
0102f7fa1105fafe
01f504fef303fc00
f3fbf0f9faf4f700
f9f3fc03fc09fcf9
03fbfc00f7fcf9fb
07f7020208fa0cfb
0e0901010706f302
f80bff020bf6f0f9
090b0406f50409f9
100a0800faf609fd
0408090b0bff0402
0a01f9fc07fff6f7
fef6fa020200fef6
ed07f502f6f5fdf9
ee0af5090af60707
fb07fef8fd06fa09
fef8fa05fb0df007
f3ff0104edff0a06
f00a01fd04020c07
ff04f7f6fefc0600
f3f90a0eef0b0008
0ffcfa04ff0105f8
ecf8f900fef706ee
fb0d0a0dfbff040d
060af80603f7f901
ec04080a0700fc04
fdfd070a0b0a0bfe
0805fa03fe0303fa
faf9f9070e060307
f101f7f6fb0f05f6
f5fbf8f1f10cfa04
fb0bf8f002fff2f5
0af909f90e00f504
010609fa06f903fd
fb00fc0bfa02f2f0
0102f40206feed0a
f7f8f7f6ff0df408
fcfdf6f8f4fcfc04
09010b0402ff0308
f504030ff4f601f9
f1f303f0ebf707f5
0801000509030803
08f8fe0d0bf9fffd
000107f6f603f505
ff0e09ff070ff40b
f308f8f507f1f607
fe060afffa030004
f60af2fe06040109
fcf0f807f509f2f5
f0060b0000fb00fe
09f3f7f2f001f2f9
0cfe050e08f8f7f3
0a05f9fdf608f208
f2f7f7f3ebf20707
f6fffc07070903fa
f4f9fb040a010cfc
fd0a040c09f70afe
ee01f7fbef02f304
f5f8f10f00f2f1fe
0a02f6f602f80806
f803f8feea07ff10
fc0402f5f5fe0308
0b07f40b0bfaf4fb
040b0c0909fbfff8
0b010600f9fff5f3
fc080006fb140801
f8f2faf807fffef1
09fffd08ff08fa03
ff0a07000000feff
ecf404f3f6fff6fc
f5f5fb060d0a0af4
fe0a0cfefbf70203
0a0e0307050bfafb
f710ff0c000b0207
02f605f707030cfe
04faf400f7f6ff0e
0e01f9080ef90af9
fffa04fd0af7f8ff
f702f1fa02f9f302
0af80a00fd07f806
f701f7fa00070ef2
02f205fdf30907f6
fb0101fdf108fe03
fdfffcf8f8f208fa
fcfa0109f7fa0af4
1002fa06080c07f5
00f8fd080709faf0
fb05fcf7fbf2fafa
f6fc07060902f3fb
0e090c04f2f7ff07
f1090d08fd0c0407
f3fc050df4fefbfa
fcf4fbf2f9fdef0c
fef5f0ef030401fc
f6fa03f6f609fe08
0509050901f7f3fe
f407f8fb0d0bfc0e
fcf704fb090b0dfd
060405060a08f0f3
04fd080308ff05fb
f6f5fb06f1f70100
fef6f7fb0701f9f8
06010900f5f9fd03
0cfff6f3f0040604
faf707fb02f2f70a
0af4fbf6fbf6f5f5
ef0b080bf8f2ff03
0209030a05f9f401
fb0afafdfbf4fe00
10fffdf9fc0002f9
00f40cfcf6f10a09
110308fbff06fc02
02f4fa0409ff0a08
0d0efc110405030b
08fa0b07fafb0cf9
ff04fc07fff6ff04
ff0100f8f5ff05f8
0208fbf1030ff507
06fff4f10cf8fc05
0609f6f9f9fdfb01
0d0d0305f106fbf8
0b030802f7f7f4fb
fb03f5fcfafef0f6
05f2ffecf008f8fe
0bf1faf6f7fdfb0c
f9f9f3f40b0b0008
01fef603f4f202f8
06010002f805f906
11000503ec0bf70b
0ff9f5040c0a03ff
0a02f605050afaf3
f6fcfdf2f9f9fe02
0502fe0bf3fefc11
f3030cf7fcfb0df7
08070905f8f0eefd
fc060102fafbf7fa
f4fdf90006050ffa
f700f611fa0f00fd
00fd05ff0004f3fe
ff0b060aeb04fcf1
080805f3ff06faf1
f0fef2fcfcf708fd
0301f40ef9fb0907
0404f5030404f9ee
0e03f7fa01fefaf6
f2f0010d0d040109
08f7fcf4f9fdf2ff
0807f40efcf3fafc
0d09fb09f00203fb
f2f6070eff0303f4
0206f0f201f1f502
f20101f5070bf503
f707030bfdf9f8fa
0400050ef2f1f4fe
f30509f206f9f1fe
01020bf605f8060a
f507f70a0bf8fd0e
05f8ff00030c0508
eff309f508fbfe06
fa070009f8f80a06
effd07f7f90506fa
0003f5f6ecf20406
fe040606fa0cf206
0af4f9ff03fd03f4
f705fb040d02f1fd
09070c090910f4f8
0ff80405fef0020a
01f605ffff09f1fc
0cf500070ff60cf4
060707fe01070503
f904f20001f30108
09070701fbf502f1
07fcfe07fb0af0f5
eefa0a0201fc02f7
ee080c0a050b0704
0901f6fb0d030209
ff0d00010ffbf4f8
0b09f9f010ff06ff
f3f10b0102040cfa
f50cf8f5f0070df7
0006f80107f40805
00f8fe0aedfff7fc
fa06fb0ef60307fe
05faf206f5fb08fd
ed0afbf9fb0bfe04
09070003f5f6f7fb
fa0c07faf606f2fd
0bfe0df7f408f8f6
f9f7fef90600f4fa
f7000efaf1fbf60c
f805fc0511f80100
08f809030f0e03fc
0bf400fbf50205f5
f007fef8f8f4f904
f500f6f7010b07f7
fcfefafa0401f60b
f1f8040e03fd0d0b
f10f06f10ff4f802
000bf7f8fb08f107
0b010aee05fa03ff
fef805f9fffbf7fc
eefef4faebf908f3
0cf30bfa06040bf3
ff120b02f4f6fc02
08f2feee13fff5f3
f9f9fff0110aef08
0dfb060c0e000df4
03100210f4fefafd
08fff6ef0cfff209
ff04f7040df2f80c
090dfafdf10af0f7
f8f90612f7fe0506
010901fcf206fe00
03070707f70a02fe
0801fe0207070206
0b04fc06fd00f2f9
0ef90107edf6fcfb
00080ff408fdef0b
00fc060bf2fa07f9
f90402f7010d070c
faf80203f2fd04f7
f6f2f9f202080404
fa07fd01fe010dff
f70bf8fc0f0208fd
0708fff9fa040b07
00fa0c050f0aee01
f6f8ff06f00c0200
03fc02050a03f303
ee0502f5ebfff2fd
fe0b01fe0a04ff0a
00f6faf8fe08fa04
0c08fcf9080bf4fc
f2f5f9ff02f30b03
07f5f90bf80af502
ec09070d0a09f508
f304fcf2fff80008
f702f7fa0101f604
04f9f6f5050bfc05
0901f4f7f4fdfdfb
0ef5000c000cf501
fb08f8f305fdf8f2
ef0809f204fd08f4
09fb05f7f7fc0e00
f906f8f3fb08fafa
0403fb0bf1fcff0d
ed0af4f2ecfc0a04
f3f70804fd04fdfb
fdf5030ffdfbf7f8
0bfef8f80508ef06
f508f8f30a08f401
00f3f90bef0bf3f8
04fafdf7fcf60304
f4fcf9fefb0a0207
0af406f6ff0501ff
0304f6fef7f303fc
fef5f8f4fcfd0809
f5fef809f300fe09
10faf9020e0af904
01fb04f9f8f2fa04
070afefff8000af4
120207080906f203
f00606fff0f6f4f7
07f406f1f8f7f204
f50f070df3ff0300
0d0208f8f6f905f3
0f07f3fe10f001f6
06fe0bf1050dec06
0a05f8f20af50bf4
090900fb0702ff10
fefbfa0cf9f205f5
040009f3fbf50601
0eeff2fef00407fe
02fd0a0b0bf9ed05
02060c0001f8f900
f00b00ff02fc01f8
0804f50a01f20908
08f80bf3ecfd06f4
f3fef4010b0c0bfe
f0f8f50606f2f802
f4f90af604f9ef09
f2f707f2f4040601
0df605f001fb0907
07030b05fc04ed03
fcfffbef03fb0ef6
03fe00071202fd03
07f70bf8020b0a05
0cfe08f302f8fef5
0a0801f5f5fd0d06
f40e00fe05fb090b
0b02f0faf0fdfdf3
ff000205f2f40705
f3ff08f6f7fe0402
10ff05f0f601ee08
00ff090afaff060a
0b00f400040c08f9
fff302fc08f80b13
0af502f60705f500
f1f30503040902f9
f502f606fc02f403
09fcf9f20401f3ff
fb01f7f6f709fcf9
050df5f6faff0502
04faf5fbf9eef100
fb0404f6f1020004
f8f6fcff01f6f4f7
f802f5f4010bf6f8
000403fd0605f4fd
f7fdf2fcff090b06
f4f2020af0fcf2f7
0d05f2060af7fe03
02fdfcf9fd01fbf8
f703f505fe03fc07
0d0806f8eff809fe
080ff5eff2faf90b
fa05f1f401fe0205
0af406fff10008fd
fefefff6030307f8
f408fa0a07090307
07fff907fbebf9f4
02fd04f0f6fc0a11
0b0500f6f904f508
fe000e0411fa0109
0d02ff03f6f9fff9
fcfff7fdffff05fa
08f7f9070105fa01
f9f70cef0b02f706
f606f8f00803fbff
fef505f2ee0b02f9
0603fdf907fdfdf3
fe04fbf90e010bff
fdfefbfd08f40703
09f703020f0e110e
f2f6f503faf9f2f5
07020001f8f7fe0b
fcf5060807f70106
0605faedfd0c0603
ff0608f6000aef03
eefafefdf5f7fd08
f8030c09f60af7f5
faf2faf3fcfdfe0d
06f805020207f9f8
10f4f20900ff08f3
0f07fb10f2f80708
07fc00070af4f404
00fb06faf00902f9
fdfbf706ef07fa02
eef503f000f9fef5
fc03010afa00f4f8
03f9fd0101fbf5fc
f207fc0311f60401
070dfcf7f0040508
090608f0f8060705
03fff8f6f8f40108
f6faf60ff9fc060a
f90106f6f6fe05fa
0afef709f6fd0301
ee0507fe0c0c02fa
0e00fcfd0c050503
090803f2f500f8f3
06fcfefb02f8fc01
f9f307f3fcf6060a
fcf403fb010102f9
f009f90efd0b0cf6
fdfe03ec09f70cf8
fd00fefffe0aff01
f7f10c03f8020608
