010a0cf604faf908
0ff60907fcf209fe
f60b0b0700f603f7
0c0df5fa00120008
fff2f40a080b05fd
0afaf5f804fffffe
0ff9000b0bfff9fe
080900ff0bf1fe07
fb020708fa070b0b
070cf30ff7050b0d
0bf2000b0308fe08
0603f8080b03f405
ef08050301f610ff
0906f80009fb06fe
0d07020a020bfd03
f808080df809f6fd
f509fc0efa070f08
030cf9f10004ef0d
0703fef2effa030a
01f7f8fdfb09f903
f402f0fa08f5fc00
f9fdfa0ef4f40604
f109fa0ff0fa0103
04030704f9f3f6f6
00fd0efcfffaf8f5
f60d040df2fdf200
f2fcf80ced07f4f2
fa0efc06f006fdfa
fbff0101f7fff2fd
ff0305f9f8f3f1f3
ee0506fef40cfaf9
0805f70a10f50906
ff0bf80bfff4fbfc
0b070bf7f6f80208
f50806ffe708f5f5
06f3040601040608
f50d0007fc01fef6
08fefcf3f5080109
fcff07fd0d0bf600
fbfbf4f104030309
07fb02fcfaf5f4f8
0003f6fd01f6010c
f80b02f3f408f4f9
0705f4f2f210feff
f8040503f501f6fc
06ff04f8ff06040f
0e07f60df7f4f8f6
05f7f9f6f50bf4ff
eef70902fc08fffe
05f3fbfdf70504f6
f7f3fe01f7fe070a
f703fe02eb0a03f8
0bfdf804070507fc
f703070afd06f701
0405fcfb0809f803
05fcf6071107f2f6
f20bf806faf601f6
fb060008050409fb
08000af5f6020101
060c0d0d070b00ff
0201fb0ff6f6f6f4
faf80002060209ff
f10efff9fdfe00fe
f703f5000208fb07
fbfff7f6ff03f1f8
f5f8f5f8f106fafc
f405ff00f80406f5
efef0e03f20901f5
fc0107fc09fcf3f7
09f4f9fcf5fa0b07
f6f8fa020af7fa05
f203f40af5080204
0d06fb0400070100
04fef7081105f70d
06090506eef70003
07ff01f507100503
f6fef608f9f6f1fc
04fe07efff00f5f6
fafcf50aebf5f909
fe080f0301f1f200
fffcf3fcfef8090d
01f7f5fffafc0b03
0df60909e9080b05
f1fffff80c03f9fa
0cf9fc09090b07fc
f9f104fd0d0700fb
00050501f2fff8fe
fef6fc0902060c0a
04fd00f2050b0b09
070afdf4fff8f3ef
0108f709f1fa0d04
fa0df9f2f5f10208
fa09fcff050a0303
f50af200ff09f3f7
fbf5fe04f00109fd
02fc0af9f7fc00f6
fb0c0bf2fef3ef03
04f4f7000a070a07
0dfc0408fe08f3f6
f8ee09f6fd010307
ef05f9f8030b00fb
04fff8fef9fcf6f1
edfbfaf60d030c0a
f8fbf40e0b04ff02
f10afd04f9f805fa
f8fcfbf6f7f1f4fd
ff0206f60005f3f3
0ef202fbf7f30101
f7f910ef04010df4
fffef90b09fef009
f90b0209edfa0d00
01020bfdf9f60502
f602f0fefcf70003
faf7fdf20af10a00
eb020701fb0cfd01
f8fe0a07f60d07f5
f405f600f607fb02
fff1f8000b04f608
06f8f608fdf6f20c
0ff7ff020bfdfd04
f70706090cf209f6
02f006f80b07000d
04f9f5fcf2060209
f3fb03fdfb10fff7
07f7fc05f600ef09
f6fbfa0a0f0a0c01
0af4fffe02f3f70d
07fb06f0fe0df900
0a0807f903f8f7f8
070500fff40805f6
eefcf80802ff0af2
f4fb07fdf80af807
f50701f1f20df8f8
fc01f8fdf20909fb
0ef7fb090b03fa01
f400020b07fc0afd
050100fa0cf90b01
0ef6f508f509f60a
f7fa04fd0f03fe04
fe0b050108fefafd
faf9f7080cfd0805
fcf404fc00030308
fef5f5fdf6fcfbf8
0e08f20609fd05f5
f5fafff8000d01f5
05f7f804f20601ff
f8f203fb0ef20105
f007fef40bf4f3fc
0301f4f2ff040d05
00f002f5f4fbfa02
fdf9faf907fcfa03
f807fb0beefbf9fb
080cf205f2f60302
f5f2f7f50909f001
07fa040301f2f901
0104fef3060d080a
fffa09fffcf6fdfd
f4fc01f6fc010909
fdf605f70c07f4fb
fd0800f0030df6fc
06fe03f90503fe0d
030cf5100c01edf7
f203fdf8ec02f907
ee07f9f9f9060103
00f9fafffcf40004
f3ff01f106f408fe
05f8fcfe0f01fcf7
050e0cfef80bfd06
0c0afafc07f5fe06
0006fc0f0000f201
08fcf307f003f8f8
0409f700f3fafafd
f3f9080b01070400
0ff4040c0302f2fb
03080203f7fc0efb
f100f10f04f4ff08
f900f3fafeff0804
0b02f200fcf1f6f3
fef6fe06ed090806
05f600fafcfb0604
0004f2f506fcf5fd
040bf70a0afc0bf2
0ffbfdf0f707f2f4
fa06070dfb050505
f0fe0508f4080a00
08f1f9f10af9f1f3
f90a0a04edf80b0a
f90cf2effcfff408
02f900fe08f40507
08f00a0cf0f6000b
fd05090602fdf807
f5f80bfef4f808fd
fafaff06fc010af4
0501fef20d030003
0cf402fa09f5f8fe
fd0cfe0a0df30907
f7f20ffaf6fbfeff
fdf1f605f7fc0509
0406f6fd0a050afd
fe02f3070bfcf9fc
05020df4080ffd0b
f6f00604fd05f8f9
060afef7f206f80a
f0f7fdf814f9f804
0b050afdf3f20100
07fefb100fff06f2
01fb030a00f9f102
ef09f8f4fa09fdfc
fe00070efcf70cf6
0bf102f3f2f5f3fd
060c030ae9f90aef
0e03fe1204ef0404
f2f4080101f7f506
05f5080508fafffa
f6f70304f801f6fd
05fff00ef2f7f707
fc000204f5fdf000
0b08fdec0afdfffc
0ffe03030a01f5f5
f109f306f2fb0808
f3fd0709f90a04f9
f50705faeff7f4f5
effaf9fc0c01f5fe
fcfaf40cf301fd03
06040cf70d0d0def
0501f50a05fcfa0a
f40afa03fef6f404
edfe07070ffbf3ff
fd0bf7f7f6020bf9
fbf50afefef3f8ff
0ff9f80a09fd0007
ec05ff04100003fa
f505f2f710f7fbf9
f6f6f8f9f3040806
0a0c090f10fef3fd
fa00010310f4fff6
f406fcf703f60902
0202fdf50604fc0b
fa0af704f2fc1103
02fe05fbfb11f904
040df7f7ffee0e03
fa04fb1108f5eff3
0804f707f5f8f805
f0fbfb020002f6fd
fefbf6fb02f409f9
0c0905ef05fb0603
fef700f8f9060809
fafc0e10f80af5fc
f3f7f5f6fef7fa00
0903f8f800f8f3fb
fd08f4f408f4fe04
0b03f3fc0b0d02f8
f9ff04f7fcf50efa
020201ef0b0102f7
0aff030408fe0202
0105050502f1f609
04050007fb0c0809
0ff603fbf609f4f8
010bf908e7ff09f0
fc060afffff208f6
fefd0504f3faf7f9
070ffef0fcf6fef6
f0fef8f306f80af1
04fdff0b06f70bfa
01fd09fa0af40200
f7f1fe00f8f606fc
08f5070911040bf3
fc01f70411f7f301
fa0200f604fcfdff
fb0b00040afcf304
f9f1fff8eff9f3fa
f60003f4f80c05f6
f9010401fd0af609
f9f707f80f07f904
f0ff0205ef090bfb
f1fc070f10ff0505
fbf701fff9ef04f5
fe05fa060cf5fdfd
f8f404f5f5fa1104
040f000b01f3020a
f908fefcf202fa00
ff01fbea0bfc0df9
01fe03f9f80d01f8
f8050c0dfa00fefb
fefcfefef8f7fff6
f9f9f0eef1f9f502
f606fc050b06fa01
fafd0300f102fb03
fd0b0309f50b0605
0003f6f407050afb
05f7000afcf6f9f2
f1f90807f0fa01f7
f6fdfd0df502fc09
0904fff2f602eef8
ed05070a0407f9f3
fefcf40108fffaf5
fd070104fbfeeff1
f5fa0bf8faf8010d
0fff010511f6fbf8
0cf70d0ff90404fb
f7ff020806fbff0b
fb0c01f20afb08f8
f2fbf4f20701f6ff
0deffd0aeffdf9f3
faf80200f3ff0a00
09fcf5f506f8ff0d
f8f9fefd05fb0bfb
f00df10ef2eef8fe
06070107f8fe08fd
f5f6f50808fefe06
0ef706fd0008f709
0005080710f209fb
0801fa0af9f4f1fd
09f0fb0309f3f70b
f107090af3f909fc
fffbf605020306fe
f402fd0d00f5ff0a
fef9fbf4fa02f8fd
f8faf60400fefa04
0e040c090e040302
0704fffff208f401
0500f70100f900f0
0306fcfb11f30f09
08080efd110b04fe
04000400060509f5
040af30503f70cf3
ed05f6f1ff04faf6
f4f4fdfa02f900f9
fffa050204f907f8
080d04fb0409fd0c
0307f807f1ff10fe
f50bf6fef4faf1fd
fefc0705f7f3f5f4
0a06090d05f505fc
0007fdf0f305f605
0305f2f800f2ff07
f1fcf6f906f0fbf9
0500f7f610f7fb0f
f1ff00ff0ff9fbf9
fb08fdfdf0020404
fffd060a08f5fb03
08f8fa07f405f80e
08f6f30901010a09
0e0c080eff080607
ec0608060411f407
0bf7fff709050df5
f80902f3f20f03f6
fbf9fdf8eef804fb
040603ff0a0e0607
f80207fef303fe05
03f90600ecf91100
f207f40814f2f802
000a0c0dfcfff3f9
01ff05f90b0d0e07
08fe07f00af90ff0
02f3fd050f0709f8
0bf402020bff0203
040905f8f2fb0af2
0d0d0805fa0308ff
eb05040e0d09f5f4
f706f30af5f1f505
f5f40b05fffbee0a
f7f7090509f9fdf9
eb070206fdfe000b
01f70af8f309fe0a
04f3f80d0c00fb0d
01edfff402f605f7
080afcf20409f306
f5f70512f2fcfc03
fc05fe070d0c07f9
00edff010d040bf7
fe06f60efdff0505
080afc090c08fe02
00f7f607f7f8f8f5
10f3fa00f00c01fe
fcf3f2ff1300f506
fef3030200ffff07
f70a0af6f0030910
f2f4fbf4fef6f6f7
10020a0f05070108
fcf800fe0701fbf6
f70e000bf2fc07fe
0ffff4f3f5f90301
ff09f3f30f08f2fc
