fb0106f40ef6f4ef
f102fdf6040301fd
01f0ff0502fb02f1
f101f513ee09f102
08020502f40ffbf3
000605ff09ed0d08
0902eaf0f210060c
f20d040b070d0e09
ec0a060804f80104
f4fb04fbf1f7000e
fdf002f3ea080109
080316fd00f10c07
ec050d0bf4e7fa06
081808fdfeea01fb
f10c0efcff08f7ef
09061002ed03fe01
ef03fa0b09f3ff16
10fc00f1030f13f6
f80810fef50af101
fd0decf5f4f10c13
fdf5fdf6fafef4f0
ef0d0000080b0cfe
eff5fd0303f2fd07
ee0507f5f00d0fee
060603f9f50705f6
070d0dfe050a0bfb
fbf5ebeaf2f0f6ee
0512ea0cf009fbf8
fc050afafe110af9
0513fdfaf50aef03
fefd0806effd010d
0304fa00f50505f7
f41406080dfbf1f2
12f807fc07f1fdf5
090613f40efef7f9
0a131402fdf40807
ebfa0bf40605f0e7
01f7000d12f90204
ec0409ebf9f70ff5
0cfb12f00104f70a
00ee04f2f0f9fef6
fef0f10dfcfcfefd
0dfcfbec01f3000d
f711100703fef0eb
f2fffd0a06060ef8
0d1102fdee0ef8ff
0d11f0060b05f6fb
f1f4050305f5f2f4
0f0410fafcf51208
0ffdeff3ea02f702
faf3edfef10d0b04
03eef5fff40ff9f1
1410f9f90bf50a0c
f6eb0ff4f7f9efee
f3fefbfe150df2f8
13f20212fdff0512
eff10ff503fd0304
f705f5f8f0ec0fee
fcfff80203fef30a
05fb1612fdff0818
fcf10cfe02f7f2f9
04f4f006f213020a
f61006f8fa10f5f0
0e0e0b0f0305f510
f8f60c0afffffd00
f701f202faf5ec0c
f7f30fec01fbf1fe
fa0409070d08f107
fb0812f50efcfaf1
f708f50f040c12f0
f0061002120cf613
07f9040c04f90116
060cfcf5ff0e0eec
0af4fcfd0405f2f6
f61101ebfcfb080e
fbed0ff2090c02f3
fc0ff8fff4f5f30f
041101fffc0d0bf7
eff80afe010cfc06
fbf102090300f4f9
f50e0b02f1f7fdf6
eef3f203fef8faff
0e020b0b03fa080c
fe0803eefbfcf417
eb07eff7f0ed1306
ecf606fcf10cf8f3
0f12eb05f20609f2
04ed00ebee0607fd
090d0c08020d10e7
f200f1f20b0cef0c
f512f013f904f702
0b0ceefdfe01f7fa
0b0c0b07f4f2fdf5
ed10f9fe0ff008f3
f7011011fb1312fe
0a0efe02f3090f0e
f9fcf6fcf703f609
f700f103f8f30f0b
ed05111301f0fe04
040407f9fdfb0600
0f06f90d090a0900
0e13f60b0608fcfd
03faef0a0710f9f1
fdeeed1312030013
03f5f70af8000c07
f3faf6f1f6eeef02
f9eefc06faf8050d
04f70e03f50afcfd
0f030f0a05f5f2f4
03fcf20111020412
eb1201010cff0a0e
0e0c0deb0503f503
1209f0fafb02ec0f
f5100ff50ef8f3f9
f1f1f8f00ef40107
fe1209f40f0ef90e
12110ff6f008fbf8
fc0ff9f7f9fefc12
02060afa01f204f3
fdf70f0700f108f3
f1f3f50afd120901
0c0606fdf911fc10
09f30f07f906060d
040dfa0609050509
080c0f0b00feedff
050a0c0110ff02fe
f801f206f20003fc
0d0bfa07fff107f4
ff0a00fdf8f9060b
051af10b0af5f50c
f207edfd0ffaf70a
05ea0deffc07efed
0b08eef50808f5e9
f5f30ffdf2fb1302
0111f8f7030511f3
f7f70df812020f10
05fa02f9fcfb050e
ed1401ff05070e07
ef0effedf7fa07f6
08f509fa0204f912
f30b0ff5fc01f603
fc08fef8f80c0811
f4030604f70df6fa
f909ee04fefd05ef
00ff0bf3f801f4f7
f814f8f2faf0f3fc
09eef00d0d0d0912
07091213f7fbf1eb
f6f0f60ffafff400
0f050cf1f3fb1608
f90d040f0a10f7f8
0a090e0306f8f9ef
f4fff70bf6f9f30a
0313f0f8f7f40a02
f906fdf312f901fd
ff01ff10faf60b05
0d011603f40d0ded
0504f9fe07faf801
f90cefededf8fc10
0506f5f7fd0c0bec
f1060eeff2f4ef12
ec00f5f7ea07f511
edebf202f9f90f0d
f50506eafff2040f
130907faf6f9f3ed
faf8fffffc0608eb
f3fa0600030d02fb
0ff6f20eef0afcf1
070814fcf308010e
fa0b0ef40afaf4fe
fafaf6ff13f00dfa
f20ffbfef4091001
f104f7f0faf3f1f0
f9f1fafae90cfff2
fe11f61008f4f20e
f50108ed09040eec
040614ffff05ed03
03f9050f03fc1400
0df3f502f5f30efd
0cfe0e0a0f04fe12
0e1102f9fcf1fa02
f50804ef050805ef
02f009fcf3fcf8f3
09120f0402ef0dec
f40a090a110ef1f0
07ebfcfb0c08ec0f
010a08fdecf9f7fa
f80ff5faef08020b
14eef2eff60900f8
010206f6eef4e8f0
fef20eea12f8fe10
04ed14fdfb07f1ed
0af5f40b08f7f7ee
01f90bff0211fcf8
0802fe07f3f9fc11
030afe0c130005f5
0f0ded04ffedfaf8
01fa0f02fbf801f0
f2feefeefd06edf9
f0faf504f8feedf4
0efc0ffc08f805ef
f9f80b02120cf904
0e080204fb1103fb
fd060af2f0020bee
0dfa0a0efd080df5
0bf30209faf4f406
edf5030914090beb
09f3f4f7130ff504
fb05fc0d1004f203
f1f6f406f910f5fd
f907f8ea0eedf407
effb0bf901021112
fdf30300f6f4f7eb
0ff306fdfe090c0e
0bfb150c060c0e06
fc13eff80ef0f5ea
0af9fdfcfe0df4ef
100d06f011edf5fa
fd010df6f6050d0f
fb0cf4fc0603f1fa
0df804fd0500ed07
0f0bf50a08f40dfa
f1f500ed09f4feff
f511f3f7fef70fed
f400fef5040303e9
f004f90210fbf30c
ee07ebf0f0f80bef
0d0cf4eff108f8f7
fdf9f0ef08fffe0b
0d08f4f0faf712ef
ef0204fbf9fb0f08
08f1e9f104fb0806
10ef010dfc12f208
0204f907ed0b0def
f202f8f9f00cf4f3
0f07f90c01f01206
f3080f07f6fafa12
ff000c03fd080508
0c0b12ee0eff0ffc
04f0fcf20803f404
0710e9f702fa0e11
f91506eeedf40b09
0512f0e9f0f7ff0e
04fbfefe0c02ede9
ff0af301fffb0dfc
040af7fcf7f40200
0c12f5eff8f50f04
fd0beff50c05eaf4
fffd0703f801f3fb
0c06f60003060c00
f7fd08f5f7fdedf6
000df6f0f6060a0f
f408faf60701fc14
fe0bfc061309ff02
fff7eaf6f1f10af8
0307f9040103ff02
f60609fc090c02f2
f508f1f6fe03ec0f
13ff14f6fd0b0bf5
0afd12ee0bf9f7fa
f1ff0c0902fafc12
02f209f0f6170af0
ffea0b0d0a0a0c12
050e10ecf5f6effb
091312f70efb01ea
04f8010bf90401ee
000700ee0afe0b0b
fd0ef9f00704fdf9
0d120dfafc0af0fd
fff1110dfbf1f7f7
05f80906f6eff604
07ef100b0bf1f700
0d0a05ef06fcf8f2
0316fc0cf206f3f3
ff1105f1ef060df3
f903ee0cfc050214
0e07f101fefaf110
f9f011010b06f2ed
07ecfc0211f500f1
09f5effb05f6f103
fb08f5f4f1090f0f
f6fffd06eff403fd
120114f8090ef5f6
fced01f10d0200f5
00eeed06fff0ef0c
fdfd0dfbf60dfb02
fbee0505f9f30c08
0d01ffeafff5f50b
000006f9f607f2fe
0309fcf80df1f200
ff07f3ebed04fef8
eeed05f1f0f5ef02
100909f6fcfe0d0c
0bf2fefcf60c070a
f3f102fbf20104f2
07f4f504030603f7
efec12f8ff13ec03
03f20cf6edf910f8
09fbeb0a06f1fa0b
0df10708f2f7fc01
ef06f1f2fa04fe0f
0904fd080afa110f
fe0705f10f0800f3
0bfdfffd10f004f1
fd0cf7f001f3f5f3
f6f5f6f1ecee0801
03fff2f5faf111fc
f8f7fa0501f600f5
02fc0e0509fcfc06
f3f5fd01fdf80ff8
fff5fcf2f1faeef9
fafdfc1104f7f404
f507000bf5f9050b
01f1060ef5f4020d
f20cf003f406f70d
fb0bfbf6f207f8ff
ebf2ff03f50bf8fc
0502fc0b030f09f7
1114070707eef2f7
f5ed1010110704f3
1101f5f9f3fffcf7
02f308f5f4fdea0d
f0f1eafdf9f6fcf4
070713fa02fb0cf3
1401f20e070cfe09
0dee0a110dfeffe9
f805e9ec090403f2
f411f608080e06e9
fdf1f5070603f6f8
f9ef0c07ed09f30b
f90013fafff3f9fa
f308ed03f20a10f8
f4fcfe0d0e04feee
fa09fd0afd0f0103
09f9010a11f30701
f703ff04f1f801ff
0f0af50407fb0c0a
f5150dfe0ffa1108
f51106ff120610ff
0bf0eef1080dfb0d
08f31809fa0afef3
ebf60903ef0e0402
fff60e0505ed0af6
03fc0610edf9f9fc
08f110fc09031112
09f40401f9f704f5
f2f40907fbf50ef0
fcf8f3efeefdfe08
f10e03030707fe15
faf4ee04f5fdfffa
0902f308fb09060a
030a0406f1070f0a
eef3f4faf9f4f114
eb0a050f13fdf904
f407f5fd0106f307
f8051302eef111fc
ffee15fdf40ff2ed
f803000c0df1f2ed
f0f606f1f90efe0c
0bfc00070c02fef0
f5f2f50cfcf30f04
f3f7f9fffe0203fb
0b04fefd0609fe0b
04f409090506f304
fdf804f0f9ec04f2
f6ef0604f8faf001
f700fb09fc0af20b
0a0e0e0cf7060d12
f1fbeef90b070e12
07060d00ed11f403
000ceff80d10070b
0d0afbfa0afbfdef
04f40afcfdf312f3
07ebfcfa10ff12f8
fffbf61010f7ee08
f0010ff9fbf80302
12f00306fe08f802
f1edfcf80a0ef4f0
0bf90506ff10fdf8
10f21114eefcf308
f2fbff03fcf614f6
ee10effa07fbf804
0e0104e7071308f7
f1f2f2100af5f4fa
