0606ea0402fbeff7
0cf80afef711f10d
0dfef5f7f8ee0107
0e0d11f90101eff4
f20f000709f60a08
fe16f104f7fe01ec
f2fef4f606fffafd
f1fffa0d100ff208
f5feeefd000df8f2
03ff03f8fff7170c
fe0001fbfcfaf3fd
f910fa0601f907fa
0af204fdf4010e0f
f6f7f5f108f7120c
f6fbf607ef07fbf6
fc0efe07fa0c05ed
05eeeff30507f3f9
0707f502f603eb0e
0e0409f2ef0f0d04
020310fcf3fcfbf4
ef01fa06fbf6f811
14ff07f90ffe08f8
effbf714f5f201f7
01eb10f4f302f70c
060510f2eef902f9
060d03fe0aecfff0
03010312fb11f5f1
0603fc0612fbedf8
09030e00faff0303
ee08f611fff605f2
ff0a1100f3fbf4ed
0708e907edfcfdf8
12f81502f6eff2f2
fff709fe110cecf3
0a090e140013f5f2
0b11f2f00904f909
0ef10df6f7f9f213
070e0a090f0917f4
03040e0eff0afb04
0a06f80e0bfdf8fa
ef01fd03010bf7fb
070ffb08f91202f0
09fff306f6070c0b
fdff0b07fe0afced
fbfe020c06f80af0
06ff0f05fcee1011
f914feff10fbfe04
0b07f2ee01ffecfd
0804050cfc09f8f9
0df9f505f2000aef
f6eff606fcf8f403
0f05f506f4f90f12
f3fa0afc06fdf4fd
05ec0df7f8031409
0009010e02ff05ec
fff1feff000309fa
0d090bfef70c0b09
f6fbeef4f0ff0ffc
f008faeb09f804f3
0c00f1eef508f7f6
f3f30a04f410ec09
fff80ef8021508f5
1004f807eef1fc08
03fe0df2fffeecf6
ef07fbf0f70102fc
fcfc0bf508eb09fa
0203f501fe0c0dfb
f2f90ef40c06f00d
f20d1604f512fcff
0dfc0df01600eeef
f1eef706080fef03
fa0e01ff07f70aee
fff6fefcff05f40c
f0faf6fced01f1f9
f406eeef12ed0105
f70ef4f5ee02000a
edf70df5fa03ec09
eefa0b08eef4ecf7
030d0f12f700f3fe
01f00efe0e0e0d02
05f4f7f006f40ef6
05ec000e05eeeafe
0d00ff0c0a050304
fa0118090d07f215
f107f7f801f9f3fe
f6070a0b12e6f607
12fd04f40509f6fd
01efff06f10af8ee
0a0e10fbf8fd0a01
f60609020af304ff
04f30afafcfd06f5
0dfff90e0f0b0e07
f506eaf80b13f800
fbf405fafffaf6fa
0ff3f10b13ff02f9
0707f60c0bfd0e05
ff0cfa06fc090302
07fcfa07f9fdf9f6
f0fa0b04fe0a0304
05fc0ef202f90600
090a05fbf6fd040f
efef09ef11f409ec
f9f2f1f4f0f40b01
0001ecf0070205ff
0a060ffb0c021107
0cf400f8f40403e9
ee0ef30d1208f907
fa090fef06051111
0510f6f602edfffd
ff070f00ea0d1310
f3070fe9ef11ef0b
05f9f5fc01f4f9ff
f0030805fefbeb03
f807f3fe05eafe0f
f2fa0befff0009f6
f3f7fe13040410ea
fff3050cf3f80ff6
020df509f211ea13
09eefb12faf80402
f20df71105f2f00b
ff10ef01060a0f0d
060907f10bf9fa0f
fcfdf8ff07080a09
f710110afc030dfe
fa0d010d09ff10ef
0f03f7f010f00dfa
0ffdeded090bf7f9
11ff01f9f0ef00ec
f2f9f2f0f3070bef
f012f108fb06060d
0ffb04f40cf30705
050bf2fbf5f8f60a
09fcf10106020e0a
0ef50104f8100814
0713f5f1f9f611fa
fe05fb15ef0605ed
ff0310f6fcfe1407
07f1fc090c00fd09
f51007ef03f005fd
070b100afc080810
0d11f8faf505fafb
1008f4fc0f090707
0cff06f4f20af3fa
fe00fb1206fa08f5
f0fffb0afffcff0b
09ee08f6060af8f7
0bfd0c0e040bf005
fef2ff01fb0ceff9
1002ee070104fff7
02fcf30512fb160c
f1020106fd130fff
0cf0edffeef80804
fbf80100010efee9
05010bf6fbfff6f0
ff0b03f0041300fa
05f4ee10fa0decea
0204f50c02f610ef
07f7f6f2fa050902
eff011010300fd0a
f606110201f2f709
eb03f300f403080f
0cf804f304160c0f
f105fcecec06f703
fe00fdfefbff02ed
f0f6f2f20af5fff3
efe9fbf51501f6ee
ecff030711021105
f1fd000d10fefe10
06f7f8f5f609070a
0af90ef00d02effe
ed10f60910130eee
0afded0cf10400f5
06f2070df1fc0ff0
10fc0ef300ec0509
faf1f50e14f9f6fe
f80bfdf104f2fb05
011506f40bfef2f5
0f110e0af30900f0
f6fdfe03f5ee11f8
fbf90c010f0efaed
01f4f9f0080c0207
02000afc0f06fc00
f609fe0ff50e0c0b
0eeff904fcf506eb
02fbf1fe0204030e
05f5fd07f110ed12
f3f1f710080a100a
00f90d0bf0070d14
120314f502f4faff
fcf0f6fe0d09e707
fef30d05fc00fe03
0707fcf90efef501
06f3f4fa06f508f3
120afcff0e03f2f1
01fef600fcfaf807
eefbee02fc080015
0105fdfcfaf503ec
fb09f7090513f704
05f4ef0ef509f000
f803fff009f90a16
f1fc0a0d05faef12
efea0af311ecf2ff
f8fcfb0b07060bf6
0108effbf4f9f1f6
07fef7080efb0d02
f302fef2120711ed
eb0308060f010107
0203fe0c130b1317
150203f6f5f403fa
f0f40809ff01010b
00ecfdfff8f4f9ef
04fc0deff2f4f818
1304f50a0301f60e
09ef02f1f9f0f70f
f3f2fc0ef80e00fa
0f07f805ecf2fa03
06f002fdf61012ff
14fe080df3f5f909
f010ee01010204f8
05ecf30ef90a02f0
f1f40aeef3150bf5
0df008eefefb090a
f0fa0ef8f9f1f905
f7fef802fb00fef9
0d0d11f3f4fb130d
09ebfa09f2f41200
f31010fa05010f02
0ff2fdf60bfaf305
08fa06f2f20a0302
06f8f30af9f600f0
ec0508fcf3f1fdff
0101f40c04fd07ea
f8f3eff00bfa010e
fd0e09ee02f70308
feee0efa04fafc09
06141005fefbf702
f5faeb07f7f4ecf3
faf5fa0deb0a050a
040205ffeffe0605
fef2faeafa07f116
07f9eaf0f7fdf212
fb030d06f5ef0411
f71309ecf0f5fa07
0bfc0f02f4fdee0b
0401fd04050406f1
1213fd00ef04f10c
020efb0a1109f1f6
1006fbf8f0070401
fc0f1206f6f502ec
050b04050b0af60c
f700f8fbf1f6f0f2
f7ee070efff1f206
eefc0df707f3f310
fb06f001eb13040f
100413080603fe01
070c020207f30beb
0cf60d0600fd0401
13ec0506f20400f2
01f10e1205f6f606
03ffea0cf90ced14
08f010f1f80907e6
edfcfffc0cee11f4
0aecf506f000f8fc
fff414fefe05f5f4
0afdfcf7f5f108f7
f8020efe0a10ec0a
0cff030b13effbfe
02f5071104030c09
10f000fcfffdecfe
f6f60d030e0afe11
ed0c0c03fe0711fb
0a0000f2fa0b0a04
ffff13f0050a080d
f5f1f6fa0af5fa0e
ef13ff02f0f4fff2
0f0d14f2020b08f6
0cfc0e0a09060406
fe0ff507f7020ffb
ee0604f0ef0cf70e
040d00f7f9fefafc
edee11f3f1f807f1
f4f20af31507f2f9
f4f908080b0afbef
01050905f0080efb
f6fe0c010cf11110
f9f2fc00ebf8ee05
09060c060b140f02
07fa06f204f3f40f
faefeff3f4f20014
0a04f5f9e80bf7ff
eeffeaf6fffe0a07
f0010207f209fff8
f2fc04f8f714ed0e
fa0a0bfb07eb02f7
f50704f20a05fef5
f1ef07f708f50803
0efffaf0f7f5fc05
09fcf0fd071410f7
e8060dfffe0309f4
0cfeede9f8fe0bfc
100013ef03f1030b
06faf505ebeefbfc
07f505150ef701f3
faf1030def000d05
0c0dfd020a07fafe
fd0bf4fc03060b0e
0bf6fa0f01fb0b0e
f7eaf40d12fafff2
07fb0508fa060dfa
f01009f3f80f00f4
f7031011f9050503
f1f3efecfa09f7ed
f30a04f606faf6e8
ed1209f7fd0bf907
fdf40111fe03f9f3
0700f3fcf5f40bfa
0911f8f8ff020b0d
0af40906e911e703
fffbeffffdf5f1fb
11f703f8ecf40bef
f2ee010100f2130a
0deffb00f6010cfb
10f7f2eef6fcf2fa
0c0001f610f2faf6
0f0cf4f3f103fc09
f3040df80406eef3
0c0ef1f7ee00fe09
0e0f0b07fe05f6f0
0b07fb0205ee0701
f4ea0d06edf00008
fc030debff0df900
f904f6f5f6f8ef0c
10fa04f1030df1fd
fc1207f715f2f1fe
edf2ecf5fe0500ef
00fd13060808f607
f907f10e0711f307
0a0c050cedfff7f6
08f60b100efb0df7
f50ef1fefa050cff
f00cecfdf50b07f7
07150bf00b1515ec
100102050a05f1fe
060c0bfdf8fd0d01
0c0bf004f6f4fef1
f405fc06ff0af6f8
0b0a04efef02fefd
0c12ef0def06f8f7
f1fa0cf60a0f1103
ff0302edf7141401
f110fce9f0120404
f30beefd00fcec03
fdfef4fdfff9fa05
f0f9fbf21015ed07
0508fcf9ffeffc0e
fa0808f704f2f30e
fe08fdf0f6060107
fd05f2f4fd04ef00
f1f2fe1306f2010a
0c1000edeeff010d
f60d020bf90afbef
0df40ceff20affed
fb0ff6f607fd090a
09000cef0806f803
f1fe0aeffe05fcf3
fa150310f80d00ef
fd14edf2fce9020c
f5ee0906fd000900
fd080ef3f6f500e9
0709fb01f9fdfbed
14fd130ef1060e02
0e0afceff4ff100b
faf50df7fc0ef2f1
09fff5f7f516fa03
03f604f9fb050000
feeeeefdeff5f208
fdf30ff8f0fbfcfd
0101fcf5f7e80b0c
fcf7fc0b1005f7ef
110be9fe08fefe0f
0df0eb00ff000100
fdee000a0e0bf4f6
fa1106ed0e01ee00
02fb0cef09fffb07
