0209f6f203ef05fb
fbf5f5060efaf1fb
f6fdf0f3f8f5feee
0e1013f702fb07f8
f8fe0df3f1070913
00f8f7fef7ee01fc
f6f3efef040bf40b
0cfaedfb0df5fdfc
f0ff15f70704f805
0e060503fc0cf411
f209010de9f2030e
f2f4150cf207ff0c
f005edfef807f70f
edf3f6ff05eff00a
1013f70ef7f10bfd
f7fa08fcf9050ce8
0b05ef0efaf407f8
f3ef0cfbf10103fe
0e14f01502edf2fb
f4f4f5f3ee08ef07
f30eeefcfdf5fcf7
02f8fc0bfff710f0
0a060501f506060c
0b0ff205f5f70be9
ff0808f9090f0110
f5f5f010ef12ed0c
0d04ebfc0f10f306
fff104ed10f40f0a
f80efefd020ff5eb
0c12fbf015fefe03
0b0e000f10ed120c
0e0febf209fefef4
01f7eefe0212fb01
040406f1edfcf713
05ed10140310fcf9
0b12000d0c040100
0df0fcf409ed04fc
08f2f6f6ecebf106
09f304ebf60605fe
ef11f90efbfd0200
edfaf3fffbf1f000
0a13f2f3ed0704f2
120fff00ff000800
03fa0914effefc09
0bf315f2f7000506
1006f0f2020012fd
0302ea11f7f2f503
f911f509f2090e0a
10140b02f5fff5ff
f5f6060cf5fcf4fe
ff0c1210f80813fa
f80b09ef0ffe00fc
f8fe02fc00ef0a08
111100eb08ebf005
02f208f905fe0eef
01f9fc0e0a001504
03f6f20a05f10203
0008f70cfcfa0d0a
fdfb0b160a0cf5f6
f81313f8fc08fefa
0a0bfaf3fdf70efa
090df1fd07f6fdfb
f113eee9f8fdf211
0df7fafc10f407ec
0211fbfaf4020df7
05f6f9ff08fd000d
05f5f40fedf5f6fb
0306eff30c060eee
ec01000907090307
f1ec00ef0c0301f9
ff0f09ff04fb0efa
f1ecf0effffc0af6
f4f9fef3fb0df8f2
000708f9eef9eeec
f3eef2f801f3f40e
ff09f2ffff0202fe
f6f5030df7f10aef
0012f10bf8f00b01
0bfb06fa090eed0e
eeeb0d12fa0b0d0f
eef70ff00311f407
ee19f803f912f5fd
080aec0ef10a0e09
08f213f9faf8f6f0
020314fb0a0a0de7
0d0ef205fef8f2ed
f206f3020ff804fa
f5f20df404f30b01
0bf90402f3fb01f3
f01005f20ef80a03
fcfbf2f1f8f506fd
eff3edfafbf5f3f9
f3f80501f5f6fc02
05fb0403ec06faf6
f9fff1fbf30efc01
fd08f90dfcff00fb
f1f1fef50607f3f4
f3090c08f3ffebf4
06f8ff0cf6fb020e
01f1ff0c0c06edf1
0b0b00070510f6f8
fef3f90af40f02ff
0efa0aecfa12f7f1
090bfbff0b091002
ed090af8f802ff09
0b0307fd0dfb02ff
0ef6090b020803fb
060901f7e808f4f2
f111fdf8f71202f7
edfefef30bfc04fb
edf413fcf1f40603
06fe13ebfffdf3ec
fdf115fffef40304
fbf40efdf6060803
100211f2130e0af4
fa091407fd0d13f2
f00016fbfb08ff00
faf5f1faf6f9ee00
030d011306fc07fb
f4f70e02f0fe0bf2
07f60cfe0cf70cf4
f905010af500faf4
0bfbfdedf906ff00
ff110d01020403fa
070ffaf5f60e0aeb
ffef0301fe03ed0c
03eefa07f908fcf0
06f0140bf8040fee
04f8fafbfe0901fd
ee040dfbf216ef05
03fc140ced09f3ff
0cf607fef505faf8
06fff709fafa0501
07030402120e0d08
10fafcfdf7080a06
0f0d0308f8020709
ecfae70bf1fb0b03
f216f806f307fbf5
ee01f7f2effd03fe
08ee11f50804fdf1
ef0cebf9fdf912ea
f71305fffd0210ea
f210f1ecfa07fb04
00f500f710fcf0f2
0a07f80502120902
f416effbed00070e
faf9fc0b04fc090d
f1f10610f603eef3
f309f00bfcff0105
070cf40900ebfd10
0ded03fa0a0bfced
10fe130aff0c000f
07f1f3fa01fa02eb
fd17fbf50b00fb04
0b0b05fc06eefff3
ef0bfbf1eff8f211
eef1ec0900f9f007
ee0bf4fa07edfbf1
ee00faf8f7fc05fa
effe0df0fd07fef9
010312fffc05ecfe
08f3050910f6fef1
07edeefffb0b080a
fafaf6ebfffffc00
030d12f40906f6f3
fd12effd03e5040d
08f60f0f130d0204
04110ff5ef05100c
1106f00c02fa0b0e
eef0f2f4f806fcfc
12f10ff50feefdee
0c07f90bfbf904f2
07f7f6f007f2f014
f6fd040f07fef709
0a0f120afbf9fcfc
0f0bf9fd14f90a04
ebfcf90607fafb01
ff050f09f2fbea00
f3f3f8fa100a05fd
fcfc08f5eef806fd
04ec0505fd14faf8
f8f30bf702fdf0f2
04eee600ef03ec09
f5efebed0c000b08
000d14f9020c0008
f20df7fa11f0f30b
fffc15eef4fe03ff
0af703fceb01f1fc
f6f3eb03f6f0feed
1312fa0bede90c14
0517fbf2f2f907f2
0e09fd0505f4faf8
09efedfd090ceaf6
0deef6f2f7effd02
050800f210ff080a
041002fc0409f5f7
06f80200fef7fa04
f80e04f40bfb13fb
f810fb11eefc0aff
0a07060df6fdf309
fd060c03f6f10f0c
f7090bf908131114
01f40f11f902f0f9
060a09ff01051506
eeff0406fd020ee8
05000808ef0106f1
0bf6f50cfff6f5f1
fc0801f8f5050c0e
f10208f600ebfb11
ef0e02fbf1fd06f8
f8fbf0f502f00af6
fef60803020ef401
02fef8fe0beff9e8
f40a0a0004f4f907
07100d0201eef8f6
03131310fbeffef0
fbf1f6f2fafff50e
01ed07f5f2f408ec
fef9effe0eedeff3
0c01f9ec0dfd0a0a
0e0213070110f608
0ff6fcf6f008f108
0d0ff7fdfaf6f9f4
f7f0f301ee02ff09
fc0efd0cff0004f1
ef03effdedeafcfa
0bf9f5000ff4eff1
05f3fb02ec060efb
f30f13f2f30af6f7
09fb0cfd090d0df4
eeedf410f4ecf5ef
f101eff6020811f5
05090605f70ef513
f7ec05eefcee09f1
00ee08fbf0f9f903
03f60df4f7f6ff12
f5f110f2010cf411
f910fffc0e16f205
0708010607f604fe
f5f31208080a0a19
f9f6fd05f20c10f0
f00f06030deefcf2
0408fe0810f30af1
fcf1fcf90b0504fa
03040ff7f6f01207
f201fffdfefffff2
ecfdfdebf9fa0909
06faef09f10b0a05
0ff90efdf7eeeefb
0ef706fcfd02f6f9
11f80e050bfaf3fa
eef7fdfdf0ff020b
fef8ff0f080ff210
0e0b0a06faf80606
06fbeef60101fcf0
040902f6f0f5ff13
f2f5f2fbf8090c12
f112090004fbeceb
f0090d0205faf305
f407fcefff0bf1e8
040706f50303f90b
0810eff1f5eefd0c
0aef0fed01f4eef2
0af7f3f9f3fefaf2
fff5f204fcf80c07
fa1603f80ffff4fd
0cedf2e8f7fb02fc
00010deffc0c07fa
eefff9f5fa0af809
050400f0f9f0edee
fc0b01000afc04fd
09f9fb09f0f41013
f60cfbfc03f1fcfd
07fbf101f8edefef
f4faf5f00e040cf1
fa0cf304f0f9fd01
fb0df30ef600ecf0
0c0b0005f506f7f1
05070cf40bf1f701
f5130f0f00f703ee
f9080dff000ef1fe
0cf4ff11ecffecef
0cf70609fbff0702
fbff13ea0df00811
f90a010bf4f5f6ff
fc0df3070e060906
0ef3f6f3020ef1fe
f3f90b100df6feed
00eb0bf7f5f7ff03
f11406f7f4130fff
09fff7f5eff7f50b
f2f508ec1108f416
0ef70d05080ef4f4
f70c0ef70fedef07
edf71107070a0c03
01080cf3f2fa0704
edfb02fff70cf3ed
f6faf4f704070f05
ee06fc0502ecec0d
09f214f904010310
1104f2f1f2f6eb0f
f8e9f303030afe06
01f50cf60703f103
f3f5fff80201f614
0712f7f0f9f0010b
fbfc05fded0ff00a
0b12fff1f002fef2
fc051008f90a0cf4
f5f4f3fd090803f0
0a03f6eefb0df506
1300ef0bed01ff07
fe04fbfef8fa10f3
0ff205eef40b06fb
050d0607fdf415f0
f2090cf2060a0813
f1f1fc02fdfdf20b
03faee07fcf60a01
12fdf20f0ffbec04
f115faed01fcfffb
f3f91401f40af5e7
16f2fafc0a00f3f9
fd070b02fb16010d
f4f6fafcff1011f8
f004ee04fafc0e1a
f2f10c0c060c0ff2
f0f0fa04f0eaf00b
030105eef4f60ef1
0af0ecfb07fbf8ed
f9f400000712fd17
fef4090213111004
fae7f8110b0a00f8
02fbeb0c0706fbf8
080607060e04ed01
f4ed0efafaec1801
f1f702141106050b
0bf3f6eb0104fcf8
f40df105f8f5eeee
07f21008f0f90902
01f30e1110100b0a
f409f5f0f0f70f05
edf4f00407f8fd0b
f5100ef2020215fd
0f0306fc05ef0e06
f9fc0807fff2fd15
0fee11f6f8fdf716
f0f8f7f7fc01fcef
0df3ef0b0ef80306
08ed00fef8faf2f1
0a04eaf60df5f301
f80409fa0703ecf9
07ee0507f0fa0904
02f111ea0401070a
00010d0afdfe0b09
0c0d0b030c0c05f0
fcf004f1ffeef90d
05f40bfb09f7fb06
0d0af6faf8f2fa12
06f4f3fcff02ff04
fdfff8f7eeedf205
04f6fcfc06f90b0d
05fa130a0907faf5
fb0d0bef0508fb00
0203f50cf909eeff
effdfefdfcf408e9
fdfc02f4f1050efa
0c0e04fd07ed0a0d
ed1007f40410ef02
0aeefef5070dfb09
fdf5eefdf0fb04f1
0bee06f0f9ef0b0c
0ced160cf1f3f2ef
0a1206fef50808ed
0400fff5f311f9f6
01f7f6f40800f009
00fb0cf309ee0af5
00fd0ceb03fdff0b
100ff2f5fc07fcee
0014f80c0f11fc0c
f5f40201fe00fb02
09fd0d0a08f9fa15
0ef0040afef8f2f0
0007f10210f107ee
0cfe00e60b020b0d
03f3f9fa12fbf713
