0d030cf1fb0afd04
fefcfdfe010405fb
f1f8fd0a05f1f307
fe0705fa06fd0406
fe010707fa0303f5
080bfe08f4fb0003
00f8f50a06fdfc02
ee0bfd00f7f501f5
fa0402f2f90df205
fdfe0502ff0b04f6
09f7f300fcf203f7
f706010cfb0002fd
f60b09070006f606
f6fdff030807fcf9
fb07fcf20b07ee0c
050100040708010c
f6060efe09fa00ff
ef00faf1010202fa
f50105f1fffd0708
f202f6fdf6ff0306
f50307effc0af3f8
fb0cf5f905fcfd0c
eff5fa050e07fdf5
00f70dfa02f7f808
fdf7f9f805fa0005
fd0d05f70afafefe
0df5f4fdf8ff0602
0106090d0208f3f6
040910fcf905eff5
f80a000afcf6ff0e
f70106f8f6f907f6
0a0305f2f8f6f407
050407fc0509fb02
0600f901f5010402
06f50801fe080903
fd1303eff40b08fa
fa03000304f9f609
f30b07f8070a01fb
03f3080cfaf20307
06fdfffd03fcf502
fef4f6eef6070601
07f40af9f9fa00fd
0bfef7fbfcfffa07
fdf2050905f80901
00f5fdf1f60deffc
03f50604f30108fc
08fbfaf402fd0003
0a0a04f5f9f1020b
fafe0200f80204fd
f5f5040bf7010bf7
fc09080608f607f9
f1f50500fb03f509
f7fbfcfaff00fbfe
fa0ef7fd0903fc0c
f606fc030503f4fd
100ff3fb06f8f507
fe0cf9f5050b0cf9
f4ebfc0506fffb03
030306050603f004
05f1f406ff04faff
01faff040002f4fd
01f109fffafcfd07
f304fa0b01f007fb
fcf300f605f70206
f9fe0708f1f500fe
0ffff704fcfbf707
020308f6f807f4f4
04f0090607f2fa03
f9f7f2f7f908fd04
f90408f8fa0dfb02
0508f80002fb0b07
fdfe05f5f600fcfb
f6f908f2f6f6f0f8
09f4faf9fc0800f7
fdf80cf106fb08f7
f300f8f7f9f4fdff
09040802fc0203f7
0dfaf3fb0afe02f4
f7040006f60cf905
0304020406fb06f3
feff04f803fc0800
fbf40507fefffb05
0e020c0802fbf3fb
060ef7050b0ffbfc
f30cf6fa0506f9f7
eefff5f5080d0308
f4f5fb020af5effc
fdfbfbef0cf7f5fd
fefbfe00f70e0307
09f405fafafe060c
0d0e01110600eef9
02f00107f90507f8
07f9040303fefcfc
030b09f800090500
0105fcf309080702
f4080a03ff0a000b
fafafa00fcfafd04
030a070a02f4f6f2
03f602fe08f1f0f7
ef0104f903fa01f3
f0f6f9fdfc0b0e04
08150004ff0df801
0600070502f607f2
09f4fb04f70800f7
08f6fbf40705f505
05f3f50809020205
010501050500fcf7
fbed0202f3fa0306
0ef0f60600010306
f0f5f40208f400fe
fbf400fa010af005
05f5f4f9020dfb0c
fb0c0cf4fa0500f8
030101fbf9f9f702
0803000b0af8f5ff
efedf9f9fefcfcfc
05f303fa02f80304
0408f90a0b09fb0e
f9f5fc0d02f8f903
0af708f9f8f609fe
f7050bf801f50a09
070f06f8fafef9fb
0901030e02f2080b
f00dfef608f70309
fcf6f600030802fd
fa05f90bf1f504fb
faf609f600f80409
0603fef805fd0a04
f3f903fafe0bf401
f2fb0c02fd000109
fb0cfe03fb05fefc
01fd0802fe0609fa
fb01010cf602ee0d
03fdfe05f40e040a
fefefdf6f9f6f703
fbf007fff7090604
fffffc0bf502fe09
f30cfdf407fdff04
faf1f506f3f5fd09
0a07f5fb06f3fa09
030ef80608fc0a04
0ef7010105f60008
f2f209f3fd050800
03fa00f207f3fe05
f40401f5fd0406fa
f60af4f704f3f901
f3060cf70600fd07
0c0603fbfc0906f6
0309f2f90bf7f0fb
03020509f4fd0303
08fbf90a0207f20d
e8fbfaf505fa08fc
0b090604080302f9
f1f40900fa04fc08
07f20bf4fe080dfc
fdfe060cf105ff0c
f604fa08f6f90902
f011f908f80ffdff
0000fbf40200f604
01f806f30906030c
f40107fcff11f4fb
0800080604fe01fe
f9fcfc07f5fef906
09fb0112030d03f8
fafdf5fc0a06fdf7
f508f6f0fd06faf0
09fff6fdf504f6fe
f2f9fc03fb000303
fd04fe030108f30d
1006f7f7f609080c
fa0c0905f7f8eef5
01f803f609fd07ff
fbfffcfffd09fe04
f0fdf701fe0bf8f8
0d020402fffeee0e
08ee070afc08fb02
0a04f9f0f700f5fb
00110207fcfe04f5
fcf6f3fefa01020b
fcfb0701fcf5fcfd
f3f7f5f909090b06
ec07f5f40f0406fe
f7faff0804fcf609
f003f700f8fcf7f3
0aff000c00f7f2f5
fffdf602fe0a04f9
0508f1ff07fc01fe
f10efdf50109f5ff
faf607f702f7f2fc
04f2fa04f5ef04f3
08fa0909f70907fe
10f3ff000900fff3
