08f002000cf900f8
0a07fd0407f6f9f4
0103ff070406fdf6
03010508fdfb0800
0c05fdf2fef40c0c
f10502fef6f4fbf8
fbf3fb0707f90dfa
010df9f40cf60507
fafaff0700f3fbfc
f2fc08f1000805fe
fb08f7f502f1f309
f3ff0409fe0504f7
f807fef7070701fc
07f90109fc0703fe
0afc0a0b08f00cfc
f7f9060b050ffe0c
f7040ff9fdf4f3f6
f9f509f9fd0af708
fefbfdf7fdfc0607
fff1fffc0e0d03f9
02fd04f60605fe09
1102fb08fffc02f6
f4080502fefc03fd
0400f7fa0500f9f5
02ee02f506f2fcfd
ff020af20b070407
f3f9f300f608f904
fa06fb0304f8f50e
09fefff6fb02fd06
0ded09f1f80e09f9
0707fef8fcf70706
080006fe04fb0307
08f603faff0210f9
f10009fa0afcfa01
0bf80901fd03070b
eef20fff01f2f508
f70cf70c03f3f3f5
f2fe03f20d0e0202
f9f909f2fd04f4fa
fc0bfff5f6f5f8fa
0aee02fd0203fff5
f106f6f1fd0bfb01
f3fff30cf7fd00f7
060402f60102fe01
05ee0604f3f601f8
070d08f50af2fff9
00ec05f104f2f1f8
0510fef105f5f8ff
0a05f1080007110c
f3ee0a10f810fd0d
f7f1fdf702fc04fa
efea00f1ff02f702
f706f6f503fd05f3
0afdfbf6fd05f7fa
fa02030effff000a
f5f9fd0afc05fd0a
fc0005030301f205
f9fcf7f8040bfe0c
feff09f6fcf30a08
04f3fb04070906ff
f8feff03fdfcf2fb
0202fcfefefa0504
0205f60afd06fd02
f2030608fff1fb05
f606f907fe05f007
fdfc0302fbfe0af6
f403fdf601fafdfc
0efaf5050b0102f7
00f3faf8fc06f500
effcf7070906fbf5
02fb09f807061009
f70bff07fdf90105
ff080a00f9fcf102
090306f800fe060b
01f60afe0806ff04
09fffef607070602
faf8fdfbfbf80001
f2fefefdf9f5f407
f30702f9fafaf302
fc100701fe090805
f4fc0cfbf5fafc0b
f9ec00f504f60209
0bf6f7f8fd0df20c
fa0e08000d0bfeff
05fbf50f06090005
0dfe08f6000c0d0a
f9000bf7fb0af5ff
0201f8ff0f010202
ff090503f4fa07f8
0404050401f3fc01
06f9f90ef80a07fe
08fff80dfc030a02
f4fffafc07fffd09
f3f5f6f8f8f20306
ff06fafb06fafa0a
050d02080cf8fbfe
fa05fd07f5f8ff0b
0ff9fbf7fcfc07f2
02ef0efc020308f4
fbfe00f5f8f5f1ee
030106040b080ff6
f9fb0dfdf9f9f8f3
06fb060c01f5f8f6
0df8f7f1f8ff07f2
00f2f501faf307f9
0e0f05fff4f5fffc
0b0304fa00f20ff5
04ee03effff90905
02f8fc07f705030d
f3f0f50307040310
07f40dfef901fd00
070af90bfeff07f6
f50b070108040101
f2fb060df5f3fbfa
0607f6fe06f40efb
0006f7fd05fd01f7
f1ed020407fefcfe
0f07f8f100fb03f7
fe0cf5f90708f6ff
f5fc0902080102f5
f6f6f3fcfcf800fd
040e09ff04f60c0c
01fbf7fbfe0900ff
f8fb0300ff01f8f7
08f8f3fb04020601
eb0608f3020504f2
0cfbf10ff7fe0c08
f0f90000f6fd06f4
f00c06ff0302fb08
fff6fa00f5f8f6fe
f9f3fef603fef5f9
f20804fdf90707f7
fc0cf30ffc05ef0d
000e0907f9fd000b
04f6fa080300f8fd
0d0707fa0100040c
f201f60cfa060d05
01f008f70b12020e
f804000204f4f3f7
fe0afcf7f50a0206
02f4f50aff0910fb
03fef810fb0308fe
0df5fdfafefb0104
fff10af4000afbfa
f9010904f9f3fb06
0fedf8f703fc0003
fefff106f80dfe02
0c0704ff01000602
f3fc060d0107fb01
ee090afc0cf30cff
f50401f7fc0705fe
efec0e01000b0afa
f7f0fafe0304f9ff
f3ed05000bf90df7
01feff0102fbf9f6
020f050004fb0006
fbfb030af90805fd
fcfdf5f502070203
0103f70204f908f4
07f4fe010903fb08
0304f2faf8fb0bfe
040a030ff9f305ff
fb07020b08010d08
f4fd0b0105fbf800
fff8f3fdfefffffc
f8f9ff0dfbf6fffc
fdf40907fafdf70b
0af1f9f6fb09f4fc
0cfcfafdf8f6fb06
090804f70105f8f9
f9f502fefbfdfe08
f5010606f8f903f9
fc09f6f9fa06fdfa
f80bf8f605010006
ffeffe0d060704f7
0303fc0efdf5fff6
0cfdf7f603f3fdf6
02ff0905060af8ff
f30705fffaf50002
0a0b0007fcff0005
f604f6f8fefe0dff
02fd0bf706f10afd
090f00f5f3090705
03f2f5080108f903
0af8ff09f609f2f9
fe00f402020700fb
f6f805f300f410f4
0aefff04f6f603f0
0bfdfa0804030df5
fcedf9fa08f0f4fe
fc02f0f506f5f403
f9f609fdf808f9f6
