09fefdf706fe0602
050601f9090af901
07f808fafdf601f8
0f00f6f50706f5ff
f8f2f3080109fc05
030d05fdfd06fc0d
f400f3fbfff2fdf6
07f3ff09fbfc03fd
fa07ff0a0aef0a0a
fdeef8f3070ffc01
fdf202fdfff5f7fb
f40dfdfbf7f00602
f908fbf6f70cf4f7
f70306f4060cf706
f8ff0709f8f9fc01
e8f8f903fdfe06fc
060402faf5f10301
f5e900fb060bf209
00fef206fa070e09
f40503fcfffc0007
fffb0afef9f10903
fefef502f6f30602
040ff9070802fb08
faf50600fd09f70b
03f5fdf8fb04f908
fd11fe01fb0ffc00
0cfdf6f802fcf7fd
f7ef0304010400fe
03fcf7f505f4f3f9
f5f0010bff02f607
f6f3fcf5f80cf804
f4f003f8fb0c0a0d
03f70dfffbfb0c02
f40004f4f9f7f5ff
fefef9fdfd0105f4
f1f0fcf904fc00f4
f0f8f6fa01f90308
0205f8f806f20301
f7fe0b040a0300ff
fef9fffdfcf1ff07
0bff070a06fe0ef6
01fbfb0202f806f6
fefafd06fceef8fd
f0edf809f9fd0907
0c070afaf4fefcfe
0c13f2f5f7fa0608
fbf4fc09fcf90b06
f81301f8fc0bfe03
0900fff4f708f902
0007ff0005f40909
fe0003f50003f6fc
0907fcffff030705
0704f60508f8f2f9
f110fefdff0bfe0c
fffcfaf8fa01f803
0ef2f8f405fb02f9
f7f6f7f601f2fdfe
00ebfd01fd06feff
0002ff0af8030604
0a0304f30afd06ff
f7f90d08f6010c08
ef090af6fd050101
f3010c0e06fb010b
0dfcff050bfb0b00
090df102f20711f9
0af303f4f80f0cfc
f5f907f80bf4f205
f9fb080afdfaf7fa
0e09fef806f4fe04
0cfdf3050104f6f8
ff0004110a0706fa
fa0403fe0cf3fcf8
fdfd0ff902faf202
f3eefc03f9f5f5fc
0b09030a03f209f3
04f6030af80603f8
09f50beff90afd0b
f411fcfb0cf5f306
fc0a0104f30cf80a
120c06f5fb0008fe
00f4fe0407fcfd0c
0febfc00fafb0405
05fe06faff0c0105
06fbf7fb02f10b01
f507fff8fbfe0909
070a050a0bf9090b
0501fcef01ff08f7
fd0900fe04fbfe06
01090b04070c0afd
f60e01f808fffbfb
fb08f204f9f3f0f8
12f8fa0afb040201
fa0e09fffcf80703
0f030804f4fa02ff
0505fdf306f90306
f503090ef5f5f7fa
f5f707f7fcfcfdfb
09110808fe050801
f7efff060aebf2f4
07fdfcfb05f1fafe
f6f9fef9ff0400fa
f800f8f000f7f5f6
fe08fb04f804fa06
0607f703f7f8f901
fcf301f00902fa00
f700010c0c080508
fcf7030806f604ff
0bfefe03fd0904f2
0e0c08f6fff9f5fa
f207f40b020f05f9
02f2fc01feeffff8
fe06f80904fe0504
0506fbfcff0a0a05
f206faf9fef5f604
ff04fd03fd0aef03
10f50508fb09fd08
faf808f60af4f501
0a02fb00fcf4020e
05fef5f7f704f904
f2f008fb0afffa09
0204fff208fe060b
fbf901fb030404fe
f804000c05ffee07
f7ef07fd000c09f7
03fb05f9fbf80900
02edfbfbfefc0bfd
0b0703fc0a080103
0cecfef6fb0c0a04
fb0afefd07fa0803
ef09fe00f710fffb
f50bfbf806f9f1fd
0cfb00f004f5faf4
fc010605f9f706f7
11fefffcf3090a04
f6f8fbf8f808ff09
ef0609f3f60400f4
0b05f40cfc07f202
fc0d030a050d090a
f5f7fef7f3fa00f5
08f4f7020a03f4f7
02f4f9fb040cfc05
080bff0005f50d0c
fbf207040c03f3f9
f7f706f8f7f0fdf3
ff02fff9faf9fe08
fee9fcf5040602f3
0b0bff01fcf50d02
f6fcff0b06f4fb07
f8f600fbfc070df6
ee07f703f4f6fafc
0301f503fb0408f6
01f9fe0f0804f805
080bf9f006fe09fe
f7f2fe0afcf3fff8
010302f809fbfa0b
01fc0309fe000102
04f4f20002f9fe08
fe03fb010bfcf5fa
05f50809f8fe0409
f00df8f809080702
f9f6fdf20206f4f7
f7f105f5f9fe0b0a
f4020106060dfdf7
0103fb02f90ffef6
080003080502f9f5
050cfff606f0fcf1
0af4faf7060200f8
f0fd070cf502060a
040508060002080b
0800f5fb08050206
f2090509f7020406
f7f401fbf5f0f4f7
000df90904f8fc01
f2ef06f8020707fd
08f604fa01020604
fd0906fe08f4f705
0e04f504f70c11f3
fff1f9f7f9f303f2
f609f4fbf2fafff9
f702050cfa06f7f3
f2f400f9f8050c08
0dff04f808f9ff08
f1fbf7f9fe0009fd
010ff6ff0804f5f8
0100f2f6040206ff
10fc000008f20a02
f9faf3f803fe07fe
fbf1f5fafb00f904
070103f705f2f4f3
ee00f409f3fbf608
fbf3fd1206ff01f7
1200010a02f20c07
