fefee5fdf8f8ec07
130f1101fae52504
0718e80feffaec00
0d0dea02f2140b12
fb0efefc081eeded
05e3eae016e32512
050714f526f0ee09
f1ed1813df0ef4f0
050c0b0d0b0b08fc
160316eff70104f7
ed1425f50d180906
f214f6eae001e5f4
150315fb1f0f190c
e31f08fde2e212ec
0ff4de140207fe00
0aeced141bfb00f0
fdfbe40cffea0209
fc26ef0b071c17eb
e7eaf8e9f7170316
171bfd1402100d13
07f1e810e7f9fa03
fff606070f1df7fc
0af1091fe6ebfafb
eef8e803f3fc03e6
04f30005d4110bf7
00fe1add1aee0be8
fa0c05e5070d17fe
081a0af9eaf90fe1
0ef70cf5fae80d01
010cf0e611112112
18ede11120f4f8f1
0908fff10bec0513
ff0af1fcf0f60bec
ef21f3f9e2e3f0f0
0d03e908f10116fb
1811fc051bf81a20
f614e6f104141504
f71fea06010e25f6
06f2261c0be70509
0feb18fdf2f50cf4
f316e70a190d12ee
14fbede0f7d8ff0d
17faeaff240900e5
f50be40f06f5faf5
09fb090bd8dffb07
021af7161bfee7f1
eaeb1e0d07de110f
f0f2170b0df71302
1302040bf80be6ec
f9110d070df221fc
f31802e205f7eb0f
f30a13020ff6e9f1
1516f800fef80b15
f0e904e703080c02
1f15e0faf416f50d
141bf80ee3041503
0b15eb00e5f21bfd
fee2e90003f8fc0a
17050a11f7110117
000fe7ebf2faf9f6
030e08f6def8f00d
0beef802081906fe
0bf1f6ef23ecebf0
01e21ced1cf1160a
f1fb09091913e0ee
f7ea18ebf3dce8e8
e2e2e1181ffb09fa
eb170bf60902e7fe
f418fefd0def0bf7
f4fcfeefe7171517
e40b1d19ea13feef
0cf6e31215f2ec02
f215f8f5d403160f
ffdaf3fb220e1416
fd1328f91a050cff
e408120f06f4f618
13e8000b13fbf015
f0ef03fceddf0119
f11628041d2614f8
eff80b07f1fee5fb
f8f5f9f31b0f0aed
0de00b15e6e8f2f6
1b05e4f815d90f0c
1621e909f006fef2
eafd1104e4fef314
0efc06f4020bfb14
05ede1f0d7f81212
f6fbe5faec020a0c
e9f7ee0c0e08f2f9
081e0af0f61d14f8
1803191d1df6fdf6
f306ed0404f2f619
13f0f8fd17f40cf6
faf312041900e6f5
0dfa200715fcf113
0df511110508e204
ffece90fe8f5fb0c
09e2fb22e61125e7
11f9e102e3ea04f9
081ae2f21af9f20a
0a00f00ee707ebf9
11f405f900faf7f3
f7fb08ddf406e8e8
08fcfee5f0f1ecf9
f10af1f6f413f1e6
06eefb20e6eefa14
021af712f5e2010f
fdf70df50d1016fd
f8f8effb21030c07
07f80ce30af80afb
19f6f121efe5090d
fde807f4e4ed14ec
ebfe00050cf2f60b
eafcfae0f5e0f003
160014e11f15edfc
f3ea04f3e614eef7
121aee00161b0415
eef414f40ffc100e
0cf50221e6ea1416
0d04f9f8e8f11105
fe11e3ffe116e801
f3e4fa23f9fb08f3
f102211a29f1ed08
12fb071414eff720
f913fdf623eb1c19
131afd070df3f9fa
05f8fde11ddbef0c
f9e705f6fc030feb
0707f5fa22ffecee
07f8f91c1cf2ed14
14ec14f019ee11f0
04131b0a0dfbe5ed
04ebf4fcec141214
08def5d9fa0fdc16
ecece31f0dfbe8ef
0edce4ee0bf919e4
f9eb04ffd8e2fcea
0de90dfe20ee080d
e60fee20151c04f1
0cddf511fffe130f
fbedfffef6fa0d12
e9d914121718f511
fe17f4f2f3110016
0f10e6e611f8eb19
04ff13f11b1101f6
e71515eeecf2f9fe
1e02e5e8eb0a050d
e6f9ebf5e8ec0ce7
f6000210dffef111
fde4fa0df0fa01ef
e915fdededf602ec
0ee3ecf0fc0ee7e6
fefcf2f60909f4fe
13fcf1e5edd805e8
ee1a1602ffdf05f0
0814f50afd0501e8
ee070d0811eee6ee
e7131b140f0c1e09
fe17dd24e11c0914
0dfcfaed1103051d
0a0e0c08e5e6f912
12000f11f9e211fc
fff70cee0c1ffdeb
f5e607fffaf5edef
06e61af31de3120d
0cfb09f822f7e6f0
1219f3061ff3ec02
1217020a09f610e5
ea08050efb19edee
08050ae7ef190316
e5eb2716ede503ef
04e310f9f4f3e7f5
f50cf4f3eff9f90c
042607e4e7e21c00
fbea16eefa2506f0
1611f50306ff1ef3
05f2f9fe0df3e5e6
ef131d0d0aec0df8
ed0bebebecef11e7
09f3f2e70109f4de
f6f302f416dfe30d
e41b1d030f1023eb
f60ffe0706eae9f0
efe90409e5f81415
04fd1701fe0d19f7
0719190ee20c0af1
e4091d0bffe8f2f3
18fd0ee6f81210e7
fa12e90624edefe6
10e1e0ece1ecdefd
0d06f91aeadc060f
f0f20f0cde00ec06
