0511eef1f8e70d12
15f7f70b230cebea
f801edf421e2ecef
0508f2eae8f7fef9
f7fef5060814ecee
f70d121eff1de2e9
0ceae215ea06f00c
08e7f8fbecec051c
0c1601032412ef17
0113fa01f4f41f0f
00f3f5f2ecfaf703
0aea111407eb0b08
1500eb05e51e0801
f5061ddfe2efe9e6
03f40af70110fa15
0518f2fff0f31bf1
18e7090efb1a10f1
f80f050c031fe115
ebe61b072103f40f
f41bee1af2f0f915
f2ee03f9fef70802
07fb1e0f0b010810
170af4e1f8180311
101fe7151b0afb07
e505f60a0e2100f7
ebf6f20413ee14ee
f9fedddbf50509ff
ece91bf804ee011e
16ef15fe12092001
12eee2f3e4ecf2f1
fce3021119fd0ae8
fc14f6071700f5ee
e910ed07f71604ec
fee005f3fc0debfe
fae71b19090a0ff1
eee7150fe6efec17
0800effc0ce91afb
ed1f1b0901f1e6f6
11fe00e2f9e10007
0214e4e908061bf1
ed0810fd03e50c0e
10eede0406f4faf3
011221e71423f4f0
f1fafafb0ef3ebf1
10f4ecf3241516ea
f5f90d05fafbf50e
1420e7261b01faf2
0913e4fbf1f7e512
0bebe8f6dcf401e8
12df151300f9dcea
f809eaff24dd16fa
13f1e7e312ee0c11
0e12e90de7f806fd
0311e7f0ef1010fb
09131b11ddf2fce9
15e3e7ed03eff207
feeff2010c0f140a
1621e2f70a0afdfb
ef0ff616ef0f07e6
0bf9fbf9070f10ec
05eb07081f1af40b
161d1b180eee0710
17fc25db0d130cf3
f61e0e17f4030a08
e710fdfa0b1dffeb
00dd08e00b12e504
0df5f60801260501
feef05f30a0ce9f0
0bfdea05f10a14fc
0b0bf51f05051a09
fbec1af2f706ff0b
fc1a13f2deecfa19
13030df7160cf705
0215fe0e15e317eb
0b050b11fc26e4f0
0311e4fbf6f3fc0f
f100100b00e0e3f2
f6e20b0a23132204
151c02e4d8f50212
1000f9fb05fcf201
f310f201fc14fdeb
f506e3f00108d908
fa0321f7e108f007
09f80ffd04f7e814
f302f10c24f2fcfc
1223e2dffe080d0b
ee1cfd08f9ef1811
0009eeeee903f910
eef80d09f0f4f816
f005e8fdf11604f2
fae70d1d0be4fe06
0de70d10e600e2e7
0ae6050af311fb15
f3fd1af4f2fb01f5
e8160e0b1f01eef5
f119070ce4080808
08000402f7ffdff5
01fce422ee14f90c
18f6fb1bf2250cf3
ef130a0e011505e2
faeb080802dfe9e7
12ee01f30e18eef9
e6e92123fb24fdf2
0de71900130d19eb
fdec08040717ffe7
ea05ffe4e7221501
fef112e1042405e0
190de3effaf70414
0a01110009000201
0ceedfe4e823ebf5
fbf3fd1ffe1307e7
e5f918e6070010ea
001304f717e3fe0c
eaf40913e11d0205
fff822f618e7160a
1712e103e2edfcee
f9f9f7f2020c1c12
e8eefee6fdeb0dfa
130d1d011cfaf6fb
0de400fd0311fc0f
0709f307f2faee07
15e30ef9eeeb11f9
dfdbf1fdfc010f18
e8ea050706eee91d
f904120b08fff9f6
ebffffe609f10d18
f41429101fe1f0e9
e80ee9fcf0010de8
e4e610f60fedebfc
e4f90e271201faff
e7e010db041d13ea
1902eae2fa000a23
0c0c1bf6010ce304
eee523ea0507e4e9
0d16dd1c1424fafe
f413e8ede707e8f0
09ebfdfee21efe03
f1151324e4fde10b
1af205fe0800f3f9
15f006011c0df811
ff1205f4e8f8ebfa
161be32512f8eae6
2213f90b1de4eb03
1219fcea16eeea13
fdf40d0a1e14eef4
e7fdeb1c13fcfe0f
e30122141503f106
f61006f401f4010c
ebe6ec0e18e201fd
f4e40e10ec1e0aed
090407ec2720f8ed
f513f9eeeef6e311
0eeff0fbffff16fc
f0f7f321ea09efea
1205f3f6e1dfedf3
f5fe07e9e90c0419
000b13f7091108f7
0f19f601df1b17eb
0ae8ed1e1cecf408
06ea120be702e5ea
e811f9fb23f0e908
fd1de3e2efdbdc07
01fe25ef241d08eb
010cedfeeefbed1f
edfdea06f30be409
e7140bfdebdddc02
f412f915f6e21207
161e0efa08f4e60e
e7f008050a050f11
00210d09e52106fc
fbf214e1dffc05ec
0709e517eb13f71e
10fffe01f81ef1f0
e7f40de8ede90d10
1213e002eef7f6ff
17e50a01e4f4e311
fcfa17000cff18e4
f3e10b1ff5e3f006
e707110a221501e7
0ee8e3e60110fafd
0a02fd03f718ffed
f6ff081a03fde5ee
12072112def000ec
19190211e90c181e
f512110915e8fc08
08221c1803060ae7
00130d0711220c18
fcf100f30aff15f4
fd1019080c0cf7ef
ff1310f614f8dbef
1918ff17f5d80ff2
fd070d0fecff0000
