ece7160c1823e6fa
12001de804eafaf7
e812160ce3e4f00d
e8f714e80ceef4e9
f9ebfc0a2af11c04
f201f1e91211eff0
efe518062a180cf5
0e0af3f5edf50c0a
05080203f0150cfb
0aeaebfb14ee18f8
02f4081700ec0117
eedd18f6ebf6ecef
fbeaea0dfe09e915
fce2ee050f260d15
f8edf7171eec1a14
031c0c0ce3161e1c
05ea0e0de8130cf5
0b00181cf612e113
feeefd030b200915
f8f413ed1aeb0208
ea16fa0af017f00e
f80bf71a10ed20ff
0b12fc230608ee07
150f190af7fbf5e4
0e0615faebf50c0c
f71fedfd1b0feff0
09eedf21f326faf9
f0e3e70319f11c22
f2f20a03f60b11f7
16e01cef1dfc06ea
fa03080e24100ce5
ece507eb100c03f2
0b0dfafbf305ec05
f50b190515daed06
1206e30a1ff102ed
08ea0e0ff5ed0af3
12fafd0c07eb05f6
ea09fef8001c220f
0de701f6e4f003ff
ebea191607ede51e
fafa11fd1620ed0e
00f90711e3fbf806
ea21de22dbf5e815
0ae3140d19f7fbe2
12fae90dfdfdf7ee
0f020ddd08e2f4fd
0a1a21f202f8fa04
f6eb10031af2141e
f2f8ec0ce3fefa10
0f0fe32411180a0f
ef0c0803e202efe2
18de13e4040aecf0
10070107dbe8ed14
ea13002008ffeaf5
2126dffaef100f0a
ec1217f1ee11ef19
05f00f0beafb11fc
f11efae00fe60e01
17fbe4ed071aefff
15f1040a0a02ef12
fef21d0e2121ef0a
f3e705dc15eb220f
e7fcfdf4ef251216
fa14e814ef0018f7
f9fef7f70fe90715
0ffe17210a0119f9
14f3e10be421f107
eaf3ff00ed0b0cf4
0bfff803ee00f1f5
111edff217ff09f3
fd07e0e0de06e8e5
ec10ff11070003f5
f30516fbe4e701fc
1221180a08f910eb
0816fefc0bf8f807
09f0e5edf000041e
e5fef3080cdf03f2
f32409121bd820ea
f0fd1afe19ebe817
09f1f2fb0213eb00
130cfc05f7f2e505
010ce5eafe0405fb
eb0b16fdeaedf6f8
f509f4fcf7fdfb06
07ee13081be4ee16
08dfe7e2ef10e7ea
f9fb0ee0f1e3161a
ef0c080802ed171e
05fc050ff91ff009
0014e81f230e0efb
fb19070d1ee30a02
f71306e6e90b1c1e
eb10070417fb03fa
13eeee1915212206
fa11e9010318f3f8
e8fdf41401efe3fb
0812f50a150dfded
e823dfeceb132313
e9dff6f10d01f713
fff204e5e414f4f4
ef12fa0add190308
f6231506e5f7fefe
08ebf8ece727f3f7
f110eb07f110f10b
e3ff11fbdb02fefe
fe0cf3f1e909f30f
f721dbdd0ee704f3
0c1ce016fcfff312
eaea040d23f5fcea
03eb0a02fc07ed11
ec11f01bd7df10f7
eeee0612f2f21cf3
03f8140303f2ffff
f2fb13240602e1e9
1af8dedffbfe03e6
1c04ef1813f61b03
eafdf3f9fc1df70c
ebf7f317fb1e0a13
010d171e151e03e9
16fe0e0d0d0307fe
f01913f3f8f6ea09
1708f2f001f5e8f4
0cdb0400e0e80beb
06e2f4f6ebf6f014
010dfbf2fde7fbf2
eff3fdf3eafa28f9
fcfaeb19fe23f9f3
061518080b0e161d
e700fef003f304fe
fa19eb04e2132706
f4ed0e02edf1faea
08e8e6fa0010f4ff
f609f1fbf3f7eefc
1023e7db1c162a14
16ee13e8f8f2f60a
08dde1f501091b11
ecfee601e0f30f0c
eeeff80c08190202
0e16e012fb0614ff
f90ae7f81607e7e5
fb15f200fefefbfc
00e308ef0fd8de01
0b112215e1f71114
f3ebecfb09f3fa0d
0908faf40de8f8f3
0610defd0ede1302
09031f1321ee0b0a
0bfde20011f7111c
0f090bf6000b13eb
06fd01e414e1e00e
0ae906e4040c0e03
fe0cf8f5e5faf518
140801f622e0f2e7
f4eb13f21ee323ff
14fb00e4f60b07f2
1312e70a19ee1edf
eff6ea0c061b15e7
0be413ed131020e8
f0f1f21ae92804fd
07fe19e9f60c17e1
fbe9f60bd7efe50f
fef0f2fae1ef2105
f8f101ddfb24fb0c
0706eaf00313e903
e7e8f606dddd17e8
0725150d1d1c0d05
ebe3f206f002030b
111619f30400f31c
f313100ce2f40212
0d08f7ffe80024e8
e10919f21625f005
0ef4e917f30b1b17
02f0160302e0faf2
fb07141ee016eefa
0810e0121500faf3
ee09fcfdeb02150b
f104f0ffec190ce4
ebebe4f3e7e81def
0af203e70026fa11
0d060ee7f9f5e0ed
f90f0af6e71de017
11f90519f717dc0e
fd0c11eafee102e4
ebe3f3f202fef1e7
0b02fbf3ef070c15
f4000fffee06f110
ed0edf16eb0d0afb
0ee8f2efe7fe18f9
eb0207001bee110f
f8f115dc02ea060d
f1f90ff3e823eef7
fbe917eb0ef4f5f3
