f400000000000000
0000000000000000
0500000000000000
0000000000000000
f500000000000000
0000000000000000
0000000000000000
0000000000000000
fd00000000000000
0000000000000000
f800000000000000
0000000000000000
fd00000000000000
0000000000000000
f200000000000000
0000000000000000
0600000000000000
0000000000000000
f600000000000000
0000000000000000
f500000000000000
0000000000000000
fd00000000000000
0000000000000000
0000000000000000
0000000000000000
f100000000000000
0000000000000000
fb00000000000000
0000000000000000
fc00000000000000
0000000000000000
f700000000000000
0000000000000000
f500000000000000
0000000000000000
0100000000000000
0000000000000000
fc00000000000000
0000000000000000
0000000000000000
0000000000000000
0300000000000000
0000000000000000
0500000000000000
0000000000000000
f300000000000000
0000000000000000
fc00000000000000
0000000000000000
0600000000000000
0000000000000000
0500000000000000
0000000000000000
f200000000000000
0000000000000000
f900000000000000
0000000000000000
f500000000000000
0000000000000000
f700000000000000
0000000000000000
fa00000000000000
0000000000000000
0200000000000000
0000000000000000
fe00000000000000
0000000000000000
ff00000000000000
0000000000000000
0400000000000000
0000000000000000
f300000000000000
0000000000000000
f600000000000000
0000000000000000
0100000000000000
0000000000000000
fd00000000000000
0000000000000000
0400000000000000
0000000000000000
fb00000000000000
0000000000000000
fc00000000000000
0000000000000000
ff00000000000000
0000000000000000
fa00000000000000
0000000000000000
fd00000000000000
0000000000000000
fe00000000000000
0000000000000000
f300000000000000
0000000000000000
