ef0bf9fffaf7050b
0206f301e9f40100
fc0705ec0bf2f0f1
f2f104f90cf3f2f5
f1f40f08fff8f7f2
040411020f02ff09
01040ffe04fbf106
050e0e040cfdfe00
fafa0b0501fff50b
08ef0c09fcf506fe
f7f3f40cfdff0bfc
0901fef4f5fef9fe
08fb140705ff0608
0af20b0dec09f10d
f5f609fc07fdf9f8
f90c00fff8fb0804
0ef41411fcf2090b
0b0602ff010f0b02
06050cfc07050913
f1f7070b0b00f4f3
fe080407fe0ef1ea
f4fe07fd02f205f9
070103040bf301ef
ff08f7f502fdf40c
11f1f30808f20e08
f70907f4f80bf20c
f40bf3fa0ef20505
07ff080303fcf502
0df1fe0bf3eef3fc
0aeef4f6f4f4f70c
f1fef2ecf90006f4
f300f303f900fafe
f305f0f307eff5f4
f50e0cfaeafdf1fa
0707080a00fb0e0d
01ed0af1fb040bf8
0ff508f0f402ec01
07f9f4f8fc000ff4
fa05fefc090df4fa
fff70bf4f309f2f6
0ef4faf5edf00702
08070afbeef2fff3
fcf001fc050efdff
f2ff03fd0c0df20e
f6fdfb05f7090ffa
f4f8f502f30cf1fd
0efeee0e0909f5fd
fd0711fb040e09fc
00fe07060bf5fa00
f3faf9fc0d09f5f5
05f1f9100ff4f2ff
f8f2f4fc0af506f8
07f9fdf80c020300
02f409fa02eff412
00f30afafe040f02
f7fcf6080502fefa
fb08ee010ffe02f4
fb030c020aff01fb
09fc0d0f0309fa03
010bf9060308f300
01fc0ff708fb03f6
fd0ffafb0e0bf9f6
0a0bed10f8f50aef
f9f10503fe0cf7f2
040cf4110110fef2
f6070bfe04fffafa
0a03f007fd0609ee
fbed09fcfc0dfe08
0af9f5f7070208f7
06fef503f80604f6
0a0ff2f5f10804ef
fa1303fe01f2fbf5
01f003f906fef3ff
ed0d0bfd0cef0c04
0b0a030509f10408
0af8fd01fdf7fc02
faff060502f3eff6
0bfc13fc11030703
0d0a14040304f50c
0afaf3f002fe0705
eff1ef0df3f00bf8
04050a09ea08f5f3
fe06fb03f508f006
f20c0a0a1007f2f1
04f304fb06f40309
fdf902fdf5f0faf6
fc01f60afffafe0e
f7fff402f9f7f301
f40c03f9fb00f207
fb04f20a0bf80af8
0f0005fb09fdfb13
fa090aff0ef9070a
f705f50409fa07fb
080d02fd0d010af4
f6fcfdf605f80103
fefe00f2faf4f913
fe040fee02f9eef8
f709080801f0f801
05fc0600f30505fe
fc0309f80700fc07
f0f0080d080902ee
0b051109f205fd0c
fff8f3e90df8f204
f10ef50407f5f40c
0f0bfef1fd0cecfa
0efe06fe120009fb
f1f4fcfcfb030201
001202fef3fd130b
0b04fc09ef15f5ee
fff30f02e40b0309
08070b0afb02f513
fa0c0cf30dfc0705
03f107f2f8f901f9
06f3ecf8e809f90c
0003f410f1020e0d
f713ff05fbf7fe10
f8fef5fbfaf61106
ed06f804070306f1
fb04021205f6fe05
020a12fb00f404f9
fdf90ff0f5faf6fb
eb0901f909ee0000
f502f9f8f60605f3
fe050b0904f3f40c
f7f60b13f1f7fbfe
faf3fefe01ff03f4
f80c020afcf4fbfc
f8eaf9f201f30df4
0210fd080eff03f1
09fc05030b030302
0e00f41208f3f3f9
fe13040607f20503
f7feff0dfdff0d04
0c0b00f9f4fa05f2
0f090eeefd010411
0b0ef40fff060b0d
f4fefd09f7fbef0f
fc0304030c070d07
f00ced0dfcfafe03
fd01f8f4fb090ffc
f110f4f7f209f609
0ef60d0aff0403f6
f2fcfb0f040ef8f6
fdf1050c09f9f4fe
f70401f3faf7f806
fd08eefd08f30afa
070c11f6f409f20f
0e00f9f80bfdf2f1
f2f30d0df4f60f0a
ecf2fbf3fbf2f611
fdf5fffbf60af5f8
07f4fefe07f30efd
030cf5ff06ef0df8
06fc0903f9f2040c
06f70a0007fc0106
060bf9f90b00f2f6
fcf0f9f9f7f4fff9
0dfe01f4130ffd0b
fcfb00100a05faf2
00fdf1f2f804f80c
f30af6fe01fb100f
f80bfc04040bf707
fff3f8f70c00f8ed
01ef05f80708090b
0b070c03060c090f
fdf504f70ff4f9f8
0206040307f1f80c
f60bf902f80b0004
09fc07ec0c0ff2ed
f60807f2f80c070a
010509f6fb05f5ff
04f5f903fe03f111
f20afe0df7f2fcf1
f1f7f50c0a0a03ff
f20ef30a050ceff9
f6eb12f00b0200f7
0501f706f504fe0e
0df90ffbf30d0910
f9fe03ec0cf406fd
f6f80108f306f9f2
f5f504ff0b040404
040cf7f7ec03f700
f10af0060103f1f4
f9fef00df5fa0aff
f108f1f5f80d000f
050306fe0b09050c
f50201030b0409f3
f900f10ffc00050c
01f2010d0500fb05
0410f0050f0e0501
fafbedf6fdfb03f1
0508fbf508fefdf8
f40e0bf1060ffcfb
f3f9fefbfcf9fff4
04fbf3ed08f3f8f6
f6eb0a0b08fa0400
07f111f508fc06ff
fd060f09fefa04fd
f50102f6fbff0904
0ff9fc0804fd0b01
eb0904f1f101eced
ecf404f8fe070a03
f5f2fa080700fcfc
0eff010ff9f1000d
0c08ff0e0906f2fc
01f9f9f504f7f8fe
fffaf910040ffcf1
fefdfffb08f703fd
090df2f7fd10faf5
fef204fc03f210f5
f5f3f6fb0bfc000b
030802fa02f509f4
f506f4fd0d0c06f0
040812fc0af80ef3
faf9ff09f609f6f3
0910050bfa0906f8
f509ec010bf507fb
fb0d110100ff0bfe
f40b05f900f9fa0b
f70108f0fdf8f700
fdf6fff2fceff5fe
fa010f0106f2f003
0106fa11f2f0fa0d
ecfa080bf80c0bea
f205f309fe03fff3
f5fefff6040a0d02
1000fb0ffdf7f2fb
fcffeef4faef07f9
eff906030cfbef0a
f905f1f8eef506f9
04f5f8fe07f6f304
0711ff0df2f5fefb
ee030e06f400edf4
000501fcf10406f7
06eef60af909f00d
01120803faf8f708
f50304f404f6f30c
fb0a02fd020afb0e
fc0a04100a09f300
020dfffcfdf6fff1
030bfff60511f1fd
14fef704ffff0207
f308f4f1f705fdfc
fd0a020604f5f20e
0f0cf8f0fb04f5f8
140ff306f0fe0600
fbfeff0af8f4090c
02f010f1ff00fcf2
f1f4effef2f7ee0a
f5f8fc00eef3ff07
09f3fa0afa060af0
fdf0f70c05fb0104
f611fff408f214ee
fe09f606eaf2faff
05fbf413fb0ceffb
0f0ff5070706fdf7
ff0702fbfa08f7fd
effef4fd08f40ffd
f61001ed07fc03f5
f803fff1faf5fff7
eef306f0fdedfefa
ef0af9f702edf80f
f7fe04eef0f5f502
05f2010c0c0c03f4
02f305f1020ffeed
fff9f1fcf7080ffa
0301edf302f5f0f0
fbf80af90a040704
0f04f0f0f90af003
f005030212fdf6fe
0cf5f41407fff8f6
f7f8f3effbf4fefd
0ffb0506f515020c
07000ff3020df90c
fb0af60af6fe02f6
fef3f8f900f9fe02
faf00cff05f4fbf3
f8ff04f9fa0805fb
00f1fe04fefd0d09
05ed0102f6f50cf7
ecfdf112f6fc07f4
f905ff060cecfbf5
00ff0f1001f0f701
02ed01f0f7fafdf2
040e00f9fe0dfe03
09ee0efe02f806f3
f40c0c0bfe0a070a
0312f00303ff03f4
f3fa04f9080bfb0e
06fdf903050a0007
0d0804f7f2f00eee
060ff60001f401fe
fdf4f7f7f6110df7
edf507f9120007f7
07f50407f409f6f6
f0f4040e0602f50d
fff20c000c030ff8
f8060600f800f6f1
f4fefbfaf8fcf1f5
f4fcf503f104fef7
eefa02130af60404
0706010807f80b02
10f1f913ee0af9f5
01f004f5040e0201
f4ff09ecf1f6fcf8
f4f40b00f3ff050a
0f01fe11f4f9f201
06fdf7090001fe09
0ff903eaf912f40e
0707fdfffcfa0012
f2f5f70aff060cfe
0a0504f00c0afe0c
0b06eefb110206ec
12080e03fd02f1f2
0dfc0d00f00af6fe
0203f60ef3f409fa
f2f50b0efdfff510
ec0b0305f2ff00f7
02fbedf1ef02fb0e
faf2f5f9f5f9f9f6
0802121306010a0e
f2f70c0a0bf9ff0e
08fc06f409fb0ffd
f4f1f70dfc04fd04
01fb00f8fc060710
0cf30ef8050ef8fc
f5f5040eff07f8f9
0ef7f20506f1f607
0ff604fdfaf7fe09
f9050cf5fff6f7f0
0a08fcf3f002fffa
ee0aff08f507f204
f7fcf105070c0d0b
02070b0501fdf0f7
fdf5fefffc0bfefe
f0f30bf4f5070cf4
ed090504f3080bf6
0c050bfbf205f7f4
fe0ef7fc00f1f708
f8ee050c04fa0bf1
f4f508edfaee07ef
fa070a0402fafef3
0a06f0f0f9f0feff
07040b0b08fdf8fd
0b01f703faf7fc06
ecfff60406f4f6fb
010a01ea07030800
06fff309fbf7faf2
060d0503040af4fd
fc07f50903000d0c
0108f80e0af40b05
f0f1f4f9f502f4ef
ed000b0defefec02
00050af8f3fef9f6
f201ef01f307f805
fa12f30ef4f3f1ef
0200f4f9f9f3f7f3
0df001f4ebf20c03
0d02f2f9f2f1f7f6
09efef09f4f7fdf3
f4f6fa0afaf9f101
fb08080cef090512
04fdf0f30103fd0b
f9ec0c040c0df8f3
0c0409eefaf8faf3
0a06f40800efff04
f8f80910f3ff09ef
f0eb02f0f9f7f90e
ef08ecf203f00bff
fe02ecf4100b02f6
07fa0d0902f712fa
0afd031302fd0c08
01feedf7efeff2f7
16fe0bfa0ff702fb
fb0f02f2f2f7fff8
0a13f2fb0bf6f710
f4faf60403120ef2
0cfef4ffffee0c10
fe090111fbf2faec
06f3f90306fe09f3
f30cf60d00020df8
f302effe01f8030a
0c08f112f8f4f906
01f10f0f02fafa0d
