f1fffdec0bfb10fd
120608080500fced
fc0df2e7f100f9f7
f4140a10f405f6f2
f708f4fb00ec08fb
ff03ed04f1110e05
02f2060d00ff03f7
fef20c090801fdef
06f710fffa1109f0
fcfb0106030cfa07
0bf8020ffe0bf20f
ffeefaeef3fefd0e
fa04f2f6ee0df7ed
0303fafb0011fff9
0d0005f80df8fa09
f601fefd01fb010f
f0f5f0081000000a
fc0706000af8f6f3
0cfe0ef307010dfd
fd040d050bfdf3f9
03fc0e0d070909fa
0b0f0103eef7f304
03f5fd11fc0701f7
fdf2f7050cf10eed
f5fb0df80a05ff02
fbf605f80f090ff7
0d0f0200f80b0c0c
f506f20cf8fbf9f2
0a09f90c09f9ec0a
0f020a0514fffcfc
0308fd13f8f0fbff
010200faf9fb0b06
0e0c03130e0305f6
0e0bf6f8f408f3ed
010f04f5f9f907f5
f5f3f2f009f80106
ff040ef1fcfcf3f1
eff9fc0409110d10
0d01f6fff40af110
fb1003fc0c04fcef
060af707fb10f9f7
02090c000109f305
f9f102150506efec
fffe08fffa0a0909
f5efef10f10804ff
f4f907040511fe0a
060c02f400fdf0ed
0af2f4f606f8f302
f4eef5f0010afcfd
fcf70ef411f6f7f9
04f604fbf800ff10
fcf6fbfd05f3f80d
09ff02060eedfa11
f1030f08f5f3f0fd
07fef5ecfb02fb02
000cf9f10cfaf90a
f7fd0cf2f602f0ed
f502f408ecf5000c
09fd0efe0bfefefa
ff0ff004fdfdf60e
fdfa120d07f8fcfc
0ffdf7fa01f2f4f7
f409fd09f30f0bfe
0df7010e07f603f5
f0fc0cf10311f4fd
08f6fafc060102ed
ee0df0e908fd00ec
feefff02faf4fbf5
07f6fb0907eefc05
f3040400ff0d0e01
f10e0ceef2fdf8f7
0bfefc0e0602f20f
edf3f4030903ee03
07f7f601fc01f60f
f10b0f1204f8f805
0af008f60cfbf80d
fe0901070cf0eef2
fd040ffaf30ffc01
13f4070ef80404ee
f910fffdf6f8fbfe
f2fd0aef0c07f6ed
08050cfe0d0108f7
06f8fee8f40afcf0
f2020604faf304f4
0d010af4f9fef8eb
ecf6f1fe0904f2fd
0303fc030605f90d
02ebfa0608080d07
0902edf9f4fcf10b
ee0a03050ffa0af3
0bef0308080c08f2
04f7f901f50208ed
0a0afe0af21107f6
0b0d0102f10306f4
fc0afd0008fb020f
1014f6f60bf20d05
f008f107f010f904
fa0a08f703f2020e
0502001501fefeec
feec0d0bf40df8f0
fbfbfb050dfffc04
fc020cf8f4f0fefd
0b0409e903f3fdfd
f605fcf4f2040707
00f808fdf9f4fef4
00f3f2f8fafbfdf1
ffefffeef8fff101
0408f30e0604f3f5
0a04ef10f8110d0d
f9080401eb01fc04
fc0d0311f4fefe08
f6f9fcef0df90c0c
f3fa050f0a0af802
f80e0ff6f8efeb01
f4fb0606fdf8020b
f4f5f408f4f40009
fff7f1fef3120902
f0faf6f501f3f611
fc07fef80a07fdf6
f1f101fe0a0af6fa
f6fd1001ee120fef
01050cfbef0308f1
0c0d040a0a0a0d0b
eef80b06f8fcfc06
f100f108f9eaff0b
f407fafd0a090003
10fafb0d080c120c
05100012f6f1040e
0a0608f2021101fd
ea0a06f30b00f50e
010cf6ed0a0af8f3
08f5f702f4f8f8f8
f207f2e90cebf600
0205fe03ebef0406
f2f2eff70df90907
05fc02f6f8000c09
0c03ec08fbfa06fa
f602fffe10f505f5
030408ebfe040bf2
f10a0c0efefb0308
0ef4fbf5f1f4fdee
01080efa0510f6fc
0401f5010c06fa05
f2f8060e0802f7f3
f9fefeee0cf40a0e
fdfef70714030208
fefb0b0efef1f210
0df70a020bf8f9fc
f3f1090604faf4f4
ec06ef00faf704f2
f40d04fffbf0110c
fe1403f6f80a0506
1310000b1200eeec
11f213f6f10810f5
0ff70bf4f6f40c0d
f6fb06f600fbf509
0df5f7020df00cec
f208f0f309faeff1
06080400f0f00af4
05edfd0bf80207ef
01fb0309090c0f07
ef0909fbfaf712f9
03f3f40b10f302ef
f9f1f905f8f2020c
07fbfcfbfdf8090a
12f0f3fffcf1fdf5
ed0700f4f2feff0b
02f20801000bfa08
effbf1eaf312edfe
0a0df209f5f30ff0
09020bf5f806f8eb
08f6fc0dfd0a0410
f9f80505faecf5fe
0ff2f60ef801f2f5
f509f509f60b050f
feedff050606fc0c
0e0a0f0700faf403
080005f60203f410
0306041300f00006
fc07ef10f9fd0b04
effaf5f9fcf8f1fe
f70c03f607fa04fc
f60c0012f7fe04f2
f2f8010cf5f60207
0309f6f1f80b0fec
e8f80dfc0e0005ff
0df302f9f5ff0c0d
ff0bfb0e06050df1
f80aeff80d0cee06
13f709faf712edf5
f608fe160601f001
0eeefa0104f40bf7
0e020c0506fafb06
11f8fafa0af70802
f5f9fd0a01fff7fc
0b11f60cf7ff0af0
0ef3f3f4060513f3
fd07fb00f4010bf9
f3f1090f020c0901
01f704fb0b0bf6ef
f407f601070a1002
0f0911f4f3fdfb0c
0202fef2ef020b09
0114fd0af2020701
0809f80df805f2f2
10f60a02f4ee0ffe
0cf2f602ff060c0d
fe060710f3040ef1
f4f1ff00f7020e01
f4000d0304fef7f2
f0060cec0605f4fe
0d020a0df8fb090d
04f5fb06f9fa0405
f0f31002f002f1ff
fffa0d000cf20ef1
02fc0901f406fffc
fb08fee905f01110
0107f2fd0e090601
f7f6f7fcfc01f20f
f9f203f90afff50c
fef5fcf308fdfffb
f5f4ebfefaf10202
00070cfbf3fb01fa
f70309f8f4f2fa08
0a05f5ed021207ff
0a0409f9eff107f8
f3fff2ebee00fefe
0408fa0e09030bfb
f60ef307fd16f5fe
01ff0903fd0d00f1
f2f10309fa01fe0b
06f8fa0cf107f504
fb03f4effd0cf700
09f80509130d02f5
ef00f1edef0efe02
f5f4fcf4090df8f0
fcff0905f01500f1
f9fc06ff0ff9fdf5
030f08f403fbf410
020400fffa0101f1
130ff1f308fa10f8
1201fcfe13030af5
eff6fe0ffdfd0ef7
0d09080e06080ef7
04f60af4fc0a0e00
f0faf6feff0bf709
fe01fff806fffb11
f6f901faf608f0f5
0afe12f0f8031009
05060aff040d0b01
f3f0f80b0b0c0603
00140b0d0cfd0407
fbee06fafef30010
fe05fbf9f700f1f3
080d08efeef4f103
050f05fcf60009ef
0c070bfbfc020f0e
05f00a03f1f9f206
03fff9f2f60703fc
050aff0bf6050309
fef8fdf201f60601
f3fb07fffdfbfef9
02f6f510f1fcfa0e
faf50901fe040bff
faf5100e0af012ff
0e0af6fdf5fa0af9
fe030706fdf20af2
02f7fbff0408f4ff
fd0c0ff0ed070bee
0ef4f7fe0ff2fc03
fc0301fd04fdeffb
0df206fd08fd05ee
0401f4ebf600faf9
f0f40af6f4f4f30a
f1080cf80905f1ec
fefe01fff40603f8
0f07ef0ff51002ff
0af3ee00f2ec0606
10f30f01f9ff0104
fb09fafb090af30b
0904f7fbf70eeaee
fd020ff8f708fc01
fbfdfaf8fdfff700
fc07fb0300000a05
ef04eff20beff5fe
fcff040407f20bf3
02f2ef02f2f200f2
00f4f604f806fefe
0509f00bfb030c03
05f30ffb02fb04f0
f8f4f80f03f405f2
06fdf70a07fb03f3
f50f02f8f5ef09f1
050810fbf70507f5
09f30df9060af9f1
0ff101f104f40dff
0beff905f80ff905
0d0311040ffdf0ee
f50bfd070bf80109
ff110c0ff3fa040d
ed090ffc04f8030e
fcfd100e08fdfa0d
f0f90bf3fb0c030e
fa0106f0fa03f2f5
0607ebfdf8030f05
07f4f7fcf3f5f200
f30b09ff00ff0bf4
020bf001f8fc0e0a
fc08fc08faeafbfe
01eff803eaf005fc
0e00f9fcff00f0f4
f9f4fef50dff0203
020d00f00812010c
f60310050ef00708
04f9f81208fffbfa
0d1307f706f809f5
08f6ef09f1fcfcf1
f40b13fbf1f9fa10
ecfc010a02040cff
f5fcf9f7f2f8fd02
eef8f80604f7f7f4
03fbfff5faf90ffc
070e09fe01f7f7f5
0c01fefa0df800fc
fbf8ee050ee90cf1
f0fe0d08f1fe0908
04f70e0306f4f2f4
070dfbf3000af3f3
fbf8ff0207f70305
0cfb0df8020901ef
f4f9edf507fdf5fc
01eb0b0b0df9f2f6
fff609050913edf1
f9020ffe03f805f9
06fb080a07040c0c
f0070cf70007fef7
0809010e070b00fe
0a0f0cf40aff020d
04f8eded0bfcf3ed
07030ef4fbfffbfe
f4fc0d090c0dfcee
f3fe0af20300f1f3
fe0c0f10f5fcfdee
f8020b09f5ff0ff2
f005ed06ff090ef4
f409f5f80d0cf7ef
fb04fbe9f60af1f4
fff70f0905f5fc0b
f5f5f0fd0eff02f3
03060a00110703fc
0ff6fef6f8f405ed
fef0ff000a05010b
fdf8f5f20efceff3
f2f8f9f915f3f1ee
03fdf2efef08f9fc
0604faedf4fc0106
fff30ef5f1faf10d
f4f406f31703f1f1
f20dfb13f70412fe
0ced00f5f4f6100d
01fd060d0cfa0d05
f8fa04fafef8f400
f7050000f1f8fc0f
f1eaf5f3f806fa07
000cf8f6fe0a01f2
f2030003090c0d0c
0afbfbf5faf30e13
0e0ef4eef9f2f4f1
f3f90114f5fcfa04
010908031105f0fb
09f8f5f90af3f00b
f9fefaef0b0a0f0b
f9fdf9f10bf9f4f7
fd1305041301fdf1
0900f2f306fe0e0b
f7f10d0b03030efe
fcfd080c0311f9fd
f5f20df714fff70c
ef0a0ff0040a0709
0606f00ff3fefaf4
f5f213fef6e80e0f
fef00402f512f707
1003f5f306070505
0d110904f5f8f6f2
