0df40a0af91203ef
fd02faf8fd09f7fe
f1f502fafefd00ef
06f603ef0cf90cf3
ee06040df2f80205
f703f0fe03f0000f
f9fcf00ef502010c
09f6fa05f901040d
f004fa0df2f7fb03
f2f211f801090403
fdf504fe07f40dff
fb0ef2f10ff609ff
0bf8f7effafaf5f0
f906ee03f7f3f00d
050b070904f9ef0f
ed000ffe0d0301f4
0ffcfa1000040bf8
f70eed09f30b0b09
07fb0c0804f8f10a
fafb0af700f4fc0b
0a081000ffef0100
f0faf9f5f3021106
0ef708f306f30703
07f7fdf5060a080c
0af602fbf8fff915
f5001205fcf30cfd
f2080af80cfb0909
f9f7050400f90304
00f311ff00fc02f1
0efbf6f510f00cf7
fd0503eb0af2f202
feedf9f002f10204
f20303fa0f0d0ef3
06f80dfbed0b0cf1
010cf2080cf3f4f3
09edf4fcfef80308
f202fc09feec1011
f801fb04f7fdf80d
04f8f30d09fd03f8
fa11fa0afef5ff05
01050c0602fef7f7
1006f805f4f4fffd
0ef9fd0e0507070b
06f8f709f3f308f3
fdfe0df2fc0dfdfd
fa0bfe07130f0100
0406f701f801f1fa
ff08f4f602040305
0aec0ef705f81200
f802fa01ec0af4fd
0e0606f10407ff01
0df0010502f40109
02f900fdf908f2ff
fb0ff1f5fc000eef
05060cecf5f90fff
06fdf1f2f7f007f2
f90007020eeefe0d
f60aeffa0005fbfe
070306fdf50108ec
0cea09f80d010af0
0d01f6f70ff403f5
00f9f109060b0a01
0eef0c0108fdfc15
0a0004ed0cfff301
09fdf2fc08f6f2f3
02090ff704fb0cff
020ef0eefd0604f1
fef8090d06fffb00
06f4f606f4f6fb0a
0604f1f50609f7fc
f9f6fcfef6fbfcfc
ffea0bf1000206ef
020a0f0504f0f80e
0df00d0b060706fc
fd03effe06f70703
0f09030b01f40b01
f8f3fdecf8fffef7
f20c0803fb02fbf9
0f0501fd10f1eef8
f8130a05f50009f3
06f803070bfaf103
f704f5f7ea12f409
fdfbfcfe10f7fff9
f9f6f4070b0bf506
070207fa030cf1ec
07fbf7fa0506f601
00fdf6f9f600fcef
f7f201f5fc060204
ed070af5f0040ff8
0df7ff0bed0101f3
f103000e01f600f5
06ef09ff06fefbff
ec0bf110fceb0bef
0e0a0509f6f60f0b
08edff04ff0b06ee
0dfef6f704f50cff
f003110bf50d10f2
fefbfd010e0903ed
08f8f4100cf40b0c
ed040fef00fb02ee
0d0901f3f1f7fae9
f5f8fc0b0b070400
0df4f80af50a0408
09edfbfa050ceffe
f20a03060febf9fe
000bfe04040706f3
05f20bf605fbfef9
0800fe0305fef312
f1f308faf2050d0b
ef0703f7020906f1
01fb05f3fd0cf10a
fbfdf505040cfbf7
fe050cf1010e0902
0ff5f406fb03f1f0
09fbf801fafcf8ec
f8130b05ff010ef3
fa08f2f7060ef312
040305f50112ff04
0c06f1f2fb040aff
f00d0a08f5fe04fa
f5080af2fefefe0e
fffc0afef6fb01f7
0deffb0e0f07f1f8
ed14f4fef304fef6
fbfcfe04fff9ed02
fc0b0e05fcf70c12
f606ecef0709f3ff
0711f20ef6020eff
0ffc0f0d0b050007
0e09edf2f2fc0700
fd05f60a00f30709
f4f9f90bf3f80e08
ff0e02f6fc03f6ef
f80d050400f2f405
11fa0008f10a0cec
fbf60af70cf70810
0cfe0ff1f10509f9
fc0607fff7fc080f
0df20909fff2f50d
04fdfbf00afb0ffa
0d070c02fa0dfffe
f0f4f80b05fa060e
0303f9f80705fefa
07eef90bf7f8f4f1
fe10eff1f30003ee
0805f100010dfb11
03090c070903f1ee
090501f7fdf9f708
f70af0f3fc120304
fe09f6f807f50fee
03f8f4eb01f00102
fa13eef1f4ff0df1
04f60ffff70704eb
edf6f60af4020a0a
0dfc0605030009ff
04eb0cfaf804fff2
fbfefeecf1130604
f5fef9070001f501
fafef904f304020e
f3ed0b0909f0f8f9
01f20afa0110eef4
130f0008fd0a0ef1
02080a04f3fe0602
f40b0b0cff0b02fd
f406fbedf10511fb
fcfef3010e060d09
f2f4f1110dfff80e
06060811000b0dee
f7f8f4060a12f104
f70804f4fd0d0c0e
01080004f7f6f2f8
0404f00c08fcf812
0c04030906f4f0f0
f9f607ff090afd09
f6faff080611fbfd
0decf60bfcff0a04
0ef910f3f1f0fa06
0c03faf9f506fdf5
07f7ff14fe00fe00
00f2fdf8f2f0feed
0000f3f4f3f609fd
09f3ecf5030b0902
0701fa0505f40dfd
fbf8f21202fffa05
f9f40403edf5f2f2
0c0af0f8fdfef203
f8080def0303f4f2
f002f80cfaf3fcf7
ee0cf9010cfcf0ff
130feff5030b010c
03f5f40ef008f7ee
05eb06f5f6f6f9ff
10f209ff03fdff13
05f403090c03fafc
08f3090701f0fb0d
0aef08f003010200
0af50616080706f5
13f1fc04ef0301f6
00f9fbf5080d0203
1003f902040508f0
fd04fb02fa0cf10f
0c10fdf912040afc
0dfdf0fffe06fc0d
05fcfdfdfff9f604
08fcef0cf61002f2
fffdfdfefd0f0b03
f207fa10faf7f2f5
0802040200fafb0d
fff8fa1310050df8
fb07f5f9f301120b
0d0af413fcfff40d
f9f1f600080af201
fdf811f0fb0a0408
0e0204fa080bfa05
0dfdf40afa0cf5fd
f501f3fe040408f2
0d01fa0df5f9f606
0202f3f1f1f9f401
f8f4f911f603fa11
0c10050df702f401
06fdff0907ed04fe
f5ff0afbef0cf011
f80e0714f7fe0107
f205f3fa060c00fd
fbf10c0bff00f009
0c010ef1ed0f05f4
07030e0e0307070f
fef206f90908000a
07f6f80f0913f9eb
0b04fcfe0ef6f10e
08f7f109f10af713
03070afef8f2fb10
fbf3f1fb070505fd
eaf3fa0bf801f3ff
10f4eeed070cf302
0501f10dfe09f8fa
fcf20bf901040cfe
070705fceb0c09fd
fdfa10f308f7f8fe
0af008000207f70f
f503fa04f80b10fd
fa0df609ee0307ff
02f903f30cf004fe
01f6090e05fe05f4
f6f901f4f80e0ef0
f0f5f10bf90911fd
f6050d05fc11fb0c
f5edf4f400010407
f8f00309f300f10b
1003ff010a030ef2
0cfff4ee0102080b
0a000c03f6f10df0
0bf9f5f006080202
ef03020801080efd
0a0100ef04fd01fc
fefcf5f1f9fef5ff
f7fd08fe05f8f3fb
0e08fb08f902f3f5
fcf5fcf4fbf200f9
f4150301f9f3f6fc
08fbf9f6fffef5ec
f4070efcfb0cf2fb
09f9f2f8f70af5fe
03100a0af5fa0cee
f6faf4f00e0bf7f8
ed060108edf2f403
edf8ee090cf9f1f6
080ff7020af4fd03
00fa03e9f312f20a
04fa1103eff4f70b
03f8fd0c0cf70a08
fdf6050a0af908f6
0c0c04f10bfcf80e
fe05fcf9effafe08
0e110602030d08f0
fceffb11f103030c
11f6f4ebf9f7f7fd
01fef6040af3f9f1
f8f5f4fefb0b0cee
eeee040cf70509f3
000ff90cef0ff3fb
f5f7f405eb050406
f902f60405f51009
06eef4050afffe11
05f5edf90cfc03ec
000207fef3fd060a
030503fbfcf3080b
fdfefb1009fe0df5
0bf112170e100dff
0bf606fdfff009f3
0f0ef609f5f0f8ff
f8eefe07f5f4f7ff
0f0aeff00ff00303
08ff0cfff70808f4
09f402ee06f1fdfa
0701fbf40af606f6
f80b00ef0c0b030f
e6eff902060b0bf3
f30e0b020904f00b
fcf200120afd0af2
f40b08f0f9fa06f5
0efc0c0d02feff09
f6effa0eef12f2fe
06fc10fafcfcf3f7
f10700f5f206f9f3
04fdf4f307fe00fc
070afbf4fcf805fb
f3f2060ef1f50bf1
01f8f1f003eefa01
eef2f2fafaf8faf5
f205f90ef30a0bf3
f9ecf7f604fdf600
f5f501000b07f607
05fb1108000cfaee
fff313f50bf0f70c
f816f207090406f7
f4040afffbfa120a
01f2f3030bfbee0d
ecfe0cf703f9080d
fff80e12fa0f0bf2
00eff00bf908f3f1
fafffb0af6f9faf9
fa03fa010cf4f306
05f3fb0b000400f7
fa08eff700f2fa0b
12f50ffa090a0300
ed0a0cea07fb00f0
f5f103eef4f4030b
faf00a09fe08f113
fe0bfc08010dfff0
0e0804f805f9f9ee
02130d0ff80a0801
09f1f7020c040cf2
04f908f603fbfc04
f4000bfff1f8fe07
f5f80606fdf20300
0700ee02fd0afc0e
04fcfcfefbf1fff7
fc060813f40c01f7
fdf8faf9fcf5020b
0ef1fb05f70cfc0e
00fcf6050e07eff6
f9fdf503fd090dff
f9f60802f30b0b00
05f8f207fef80bf9
0bf4f2fd0cfff904
f7fef1fa000c0810
f4fe0f00fc0c0f0c
fe040707f7070cfc
edfe040a12f2f1f2
f505fa110704f704
0a08020efffcfef1
010004f60903eff8
0dfdf008ebf903f1
edf4f6f20b060df7
04eef901f9f306f1
f00007fbf3010905
f300f1f7f1f008f7
f50e0cfbfcf30d05
03ee01fef301f5f9
f8f10a070afffc0d
fe030afa0d10fb05
08f0fff3f3fcf7f7
0cfb08f1f5000b01
f9060d05f8fbf1f1
0203f9f90404f3fb
fafd020d0f01f9f1
f4fbf30804fe090c
0601060c0c070a10
12fe0e0506f0070c
03fdf3edfe040808
f500f7f9ff0008f8
030cefedff07fef3
150cfb0617f5faef
0508f6f7070502fa
07f6fefc0308f40c
05f4ffecf20604f3
0b0607f40ef3fef9
f5f308eb08f309fa
ee0cee050902fb02
0ef4f3080500f00c
11f6f5f90ffa090b
eef5f51705faff04
04fb020907f4f303
