0e09f6fa05f01702
fd06f8fa07e808fe
f7f0f0f008f1faf9
0ceeef121200f706
f70509edfd0df409
f70cfe0710f1f503
edff000106fdec15
0f0ff0f4010014f4
11fafb0cf90a1006
0013f403fb0f08fc
02fd0cf3f60519f3
e9010303050bed06
ec020a06eaedebf9
f9fdff0afa0003f7
09f5f60a1106e701
f0effe0b01030913
0a05fb0efafcec0e
12fef4f109eef902
0d0215eefef205f1
e9eef8f1f20df0ff
fa14f9f3f9f20808
07030b0ef4fafeff
03f615f10b0309fd
04fcedef0e000cf0
0f0901140ae600fd
f30704fffb1204f8
effb0f1102fb0ff1
05fd0e0c0afaf2f4
1912f5edf3f608f7
0409faf0f9fb0bf1
f40af8fc09000b08
ec02ecf6fafdfc06
0001ee04f8eb0e05
eff8fb0416fef2f5
fb0de804f2060af3
0110f0f00109fcff
f101f50b07f70cfe
faedfaf10c11f3f7
f50dfd0bfdf5f60d
09f90b02fded0cf3
00050d030307faf6
ec090cfc01060ef7
fffeef01070f0ff9
08fb0cf5f708fc08
f8fdf315f90516f0
eaf3f3f6ec02f502
f80bf30afa161012
0afff30bfc001016
07f80b01f5ec04f7
fceeed0204f8eef5
f605f5fb1104f5fc
f2f50bf0f7feec03
ea0ee9edf915ecfd
09060b09fcfa06f6
f4f2f1fa0310eff0
f50712ecf9f2e9ee
0d060514fc060eff
fbe913f70215fffc
0d05030ff0f6f507
12ecf0ea0ff0fded
0cec01f4f10812fb
05f3fdf8eef306ef
0ff1fe0bfdfdfe0b
0aecf2070b0700fc
f0fef509eef2fcf8
020109fffeec12ed
0313f10b08fee612
fa10f10cf2ed08ff
160cfffefaef02f6
f4f4f70b0eedf7fb
effff711f5f6eef6
0c16f5ec031514e8
fb11000ffdf70d05
00f00b08120bf6f6
0b040d03f5f0fafd
f301f4f40802f412
0bf0110d09eeef0b
fd03f90a0c01f306
ed030cfcfb01ffe8
0110eef7f708f1fa
e903f306f106ed07
0afaf5edeceb0208
09f4f8090bfdf10d
0a0aedfbfc15eb08
ea06f4effdfa05f3
01eb13f5f3040808
f8fbf913eff9eeee
f8f9f5eefaee10fa
07040af0ec07fffc
fbff07060905010d
0def0410fbf7ee00
f80c130feb0b040f
f7ea0a00050e0b0c
13fdf4f7000503fa
0e150e07f5f1f3f8
07140904fbf013fe
10ee08f40f000501
09050707ff10fc08
f2ed010005fc1610
18f208edfc0e0006
eaf104fef4e50ff0
fc05ee1102020c08
f90bf409f00ce9f1
f2fd0a0dfdebefec
17ef0b0ef307f8f5
0d12f6f1f3120dfa
08040200f009fbee
0504f5fcf507fafb
0514f60ef3090303
100d0a07ecf41314
0bf10f0b09f4110a
fbfb0a10fe0ff900
fc0107050ef20af5
03f9f80b02ef01f5
ece7040b00f9fa09
fdf7f4090a010d13
f9fcf80a02f5e40e
09f309ffeef4ffef
edfe16f2fefbf3f3
020df5edfd0e0bf6
f1130cf7f4f4ee00
06050bea0cfd06ed
efeb0df6f1fafdfd
fa00fd010d0ff5f1
f2fbf20806180dfc
f7080e07f00afa0f
13eaef08f5f7060d
070c01f707100208
0a06f9f8ecf01af9
ed040906fc07f809
f7e7fb0c04f105f2
0604030f0f0ce804
010605fcf7ed090d
f40affe9f10dfe06
f3ef04f30f0e0e0b
ef0503ed12f308ff
0ceef70ffc121006
ecf20afb06f908f2
fbfeeb04f7090511
eaf701f2010509f1
f3edeff9fefe13ef
04f7f607f1fafd09
060ef501f40f1202
fcf0ef09f6020aee
02fff51001fcf7f6
08fc09f0f00709f9
fbfefef7f90505f1
0502fc0af0030c04
f810f1f9f8f0ff04
f8eafaeb0715fa0e
0918fcf0ff07ef0e
091205fe0bf302fe
0ef0ed00060d0d06
0d0611f81002fdf3
f7010d0300040a07
fa0811f9f90ff5f2
05f5fe0cf803f107
f9f110eeeff5f8f4
ed0c15ff09060500
0ff9ec07f60e0606
f813f4ecfafdfdfb
fd0f06f4070206f9
ed04ee0bf005e910
12f70efdfc06eef0
f3f20dee02f20102
f3fffbfd0aed0d00
f507f8f20a081411
f30b04f7ef04ed0d
effafbeafe02ec00
fafdf7fd0bf2fff8
0aff07f6f3070808
f9f9f6fbecf6f407
0c0cf701fc0a10fa
05ff0a10040203ed
fdfef3fef3f9ff08
f6edf3f30d020113
fefd0d0807050df6
f3e914f101fa1206
0001ff0d0af7f408
06f3ef08eb120002
11f5f70a06f8eb08
0ef600eff2fdfb0c
fcfbf8f8f7ee11fb
eaf50af604e7f109
00f3fdfc0af8ef01
030d04f208f9eefd
0609f6f4070cf013
fe120e0aeeec0a09
0cfaee0bfcfcf2fc
010f060effeefbfb
04f00b0a0d0beff8
f5fd0bf911f70ef2
f8f6fe07f1ef0df0
fbf9030303edf201
0203fafc0afe0002
1508f20ef902fc0a
0812f702f605e8fc
07090204f30d0afe
f3130112f8110eee
0cf910020300f6f1
0cea07fdf90f19fe
effcfd03f1fdf208
ef0405f50ff7fcf3
10f2fef7fcfff4f3
01f50cec02f40009
0cf710f806fdfaf7
0f0a01f4fff50511
04f21604f5ec09f7
ebeaf3fa1218e30d
f60b0efb0f07faf8
05f4f6070c0c01ef
0b0511fef9f0f2e7
f10bf812f0f414fd
10faf60bf812f6fa
ed150efbf4fe0713
f90503f0faeaf9fc
040c00100606fff4
0decf4fe04f306f3
10f30f01fd060000
12f5ebf809fc0a02
fe1309ff0af2190b
fb0f0cfb0ffb03f3
f5e9fd0af9f303f7
fc0df100050911f5
0deaf1050512eff7
f402fb080211fd0f
f3f8f207fc07f908
f70e0bfff1fb100d
fcea03feed06ff0a
18f7070e0af9ef11
f61407f2fbedeaef
f10aef08fd060ee9
06f10ffbed1808fa
fb06f6ef17f7f60d
0f13150df910eeee
080aeeefff0e08fa
02f7fe09f4f0e1f7
f50606f8fc0d0807
0906fe0308f10704
f0f705f816fcedf4
0e0d080af0000402
fa05fdf901fef409
fefa0d04fa14e9f9
08fafbfdf7fcfd06
10ef110111ec0405
1508f8f809fbec03
ef0de7faf7f3fe15
fa050f04f605ee02
fd03ed07f3031306
14f1fa0d11f60a02
f3f3eb0411fbf1fb
02fffe03f0efedf3
050a07060d0efbf7
f4eef2f1fb0204f8
0aece800f0f70d08
0e13f102f8fbedf8
ef0ff813f509ee06
fd01f6f815f010fe
0cf50901f109ff03
08fbfff10dfd0bf8
f5f90c0604ef0b0d
fe05f406f7f8fe05
f8100afefcf50fec
eff0f4fe080ffef7
0b11090601ef0106
f3150a0e06f5fff3
05f3fbfbf113010c
f910f2f3fc03f403
100bf0e8fcfdfaf1
0eec05f40dfdfdf4
fd05000c0ff712fb
00f10af8090af905
f208090ff1ff11fe
ff0108000d0109f8
040408fff4edf1fa
f90a0dfb08fffc03
040613f6f2f6f305
e8e9010400f8f208
0e02fa05ef0203fe
f8fe08fef3f9110c
fcfa0b0afd0b130c
0beffd020813fff6
0a1312eeedf91c08
f8f3f501f50c0406
09f0f20ef1f9fdfe
f00f040ded140311
0c04ecf80903f3fe
09080f0400fded16
f2080b050e0108fa
050e0d0eef1008f7
fbf90ff9f3060f08
f201f10a09edf508
01ff000efb11e9f2
0bec07f60efff001
ed120c0cff00e809
12070d04f809eafb
0cf50aef0a050208
07040bea02fd0f0c
f0fa0909fcf9f8eb
14ff090b06fa11f2
f005f211f9f000ee
ea0cf1fbf6f4f808
f10feb02f9fdeeef
0ef1fefef4fa0505
10f3fc090f0bf1ff
fd08f0060a08f5f5
f20407f503ff0eea
0b00080402ec12fe
fe0611f7120611ef
f2f1eff8f501f4f4
0a06160ff5fbfefe
f702f5040100f109
f1faf1f412f6f50a
f0fdf9f206ea0ff3
edf806090ff2f10e
f7f4f5edf708f70a
fe0004eb0aebe3f3
f30400f507fc10ff
10f1ebf7090115f2
0af6120910f90806
04f30ced09f10e0a
0cf90605ed090cff
0afa01ed0aef16f6
03f4f906f3ee10f8
f7f2f31105fdecf4
15fdee01f10ef5eb
0411f406f503f5ef
01001009f50d1316
0a07fa0ff90ffb03
f507f6f3f40bfa15
ee0bebfa090507f7
f60ff90afc071004
f910f500f7f70809
f10df907f711fdf6
f619ef100af4f00a
01f2f7f9f6f40011
00f90e01fb111303
06eff7fef901f4f4
f801ea0efdf30ff2
f810ef05edeaf308
f30206f2ef06f6f8
f7f00eeefc09eff0
1014fefd0d0201ee
faee0f08f1060dec
f1000204edebf2f5
00f7090f08f6f3fe
15ed14f1f7f7f209
12f0090808f101e9
1302f40d130df8f6
fc0bf20101f30aef
eef307f0020c07f2
0802f8ef0604fe08
100402f5fef101fa
ef08f0f8f301f4ec
0ff5f7fa0f08ebf6
1010f30cf104f10b
fe020bfcebfbf1fe
f9fe050d08f20007
f705fe09fcfb1410
0b0fedf5ef12fafd
020c05f50f05f10f
0f0f04031503f5f7
07efecf40a03ee04
02ee090814feec0e
08040aeff7161bff
f3fdf7f909f60317
06011507ee1107fe
ec0ef10df1fb0308
0b0ef70207141d0c
090d08fbfd0c0c11
f207fdfc00f2eb01
05fd04fa06060213
060dfa11fefcf10f
f1ff10eff40d0405
03ff010f06f50e15
0af3f00a0604fe02
020cf70cf4ec10f4
f30bfef714fef812
0b02f5020af11812
f5effc1013edfff4
f6ee07f205eb13f7
f904fdf906f9f101
060beaf811eef6ed
12050d000100f60d
