f405faf10d090107
fe0706fdf4fdf112
020ffcfbf5060907
0212eefcf2fa07f5
10ecffee0ff8140e
000a010d0bfbf9f5
01fc01f0f6f402ff
ed0d02f1f5f5fcf4
0ef5ff09ed05f007
0bed0c04f50d080e
f7f3ff0900130915
02f7f305ff0e0005
ffe9f712eef1f3f8
fb010bfded0cf0f7
ff06fe020a0bfaf0
010df9f20611ec14
050000160503eb08
f5faf1f90bf210f3
ee080b090ffa0202
f9080fedf5eb07f5
f8fb0014fd162004
080a18e9010a1514
f3f11010ff0603f4
04fbf4f6f70208f4
0a070df40e0beff9
0301f9051309ebf2
ff03ed0efc03ebf1
03f605ef06140c02
f3f9feec00f5f208
0d0101fc0604fb01
f51605100cf8f0ff
0303fc04010cf004
f7eff710fdf4fd0d
ec0b0005f1f3fcef
010d0dfe0504ff07
010f03f40ef70805
12f7f0fe02ff0a07
01fa0eee08060e07
ee1317f501ff02f6
12070e04fcf3f7f0
f202fe01f5edf902
f5f10af9040af2f0
0ef0f00ef2ff0912
0f06f4090a0bfbed
eeff09e906f111fc
0c100a0cfaf9f6fd
0bf30cf4f0f1f007
fc09f1ffff120dfc
0ff00ffff91310ff
090ff7f00c050ef9
f1f4ee00fdf40cf9
0f04fc090eed16f9
f20ffaf910fc0bfc
f1fff61008120b0e
f9041bf40ffa0111
01f300010c00ec06
f4fa0bfa0910f1fe
edfef60c0002100d
0d0df0f6f30e07fa
10fcf0ec07ecf1fb
0f030218fb10f002
efed07fced12f6fb
09f500fb0cee0d0e
f50211080a0aeefa
fb07f30a10f00507
0b0ef40304fbf302
0513f408f7ec140e
f5140602fefbed0b
f30301f3110fee0c
0b0d0ef0ee0cf5f0
ef0b0609100a0911
09f70d02faf70713
060b0410ed09f0ff
00f8f8f1f4110914
faecf3faf80c1707
06100eeff3f4f60c
f00c0215010c0b0c
03010cedf2f8f9ef
0813f6f9fe11f4f3
fef4f1fb06010404
0302f206ea0e1e09
0a0c12f1f4ef0504
04ed12feffff0907
03fb0504faf50aed
fc17ee13fe15f3f8
07ee04fffbf4f807
f11708f100fcfa17
f30a1009f1060103
f80dedfefa05edff
0306f00708f20602
f9ea0a05f7fce8f4
0af2ec0301efe6fb
f9e9fef40befdefd
170104fafa00ef00
0ff405f5fefb0e13
0ef9fffafa1109f2
09f9ee05ea0706ff
0a07fb02f50609f2
12fb0cff030c0af2
fffcedf9f20d05f3
070cef14f7fe0102
01fd04f4040afbf5
fa00ef08f2f91502
020f080bfef40f0d
fb11f3eff20407f6
f0f8ed130df004ff
edebf2f3f901f113
f30fef0e08fbfaf0
fa07f70ef3fbff07
f90209fd0cf202f9
050e1404fc050cf6
00f6f8fe13f2f203
ed07f6fa090319f3
0c00f5f5f914fef4
ecf6ed00f5ebf008
07ee0905ed14f5f2
f0f50e00ea09e201
0f0900050afe0ff6
fdf10bf5f6fcfcfb
eb111008f200f4f4
130001e9ea0cec08
f9fc140e090009fe
06fa1904f2f816f8
f81006fe0ffd1103
fdeded0b010dfdf6
0504feed0e10100e
fce8080eed000c03
f01006faf30df4fd
0cff0c1afc03f802
eff30e120207f3fb
16edfcfb13f6ec10
00ef00f1f705f8fd
f7f0fb0afffbe804
f513ff010ffc01fb
0510110cfcf60907
0ffa1408fbfe0c08
fef6f4060dea0e07
09fbf7eeec09f00f
f90ffdf1080701ff
04f507f3fbfaed07
fbff0b0410ec1cf9
fbff0a0dfaf6ee0c
f9ebf70410f10a05
ec090900f710ea09
ee01060f0a031cfd
f2fa0f05f30201ed
0c04eff2eef615eb
f3f6fdfffcf0f9ff
0ceff90df0ffff0e
f60008fd00effaf7
f70ae808f204fd02
f1f90cfff7f5f412
0510f811fd14e8fd
ecfd10f5fbf00105
060eed07ee100215
0cf5ea02eef6ec0a
f8ff050bf5ed02fa
f9fa0dfef4090c03
f003f10001f004ef
f505f401f707ebf2
fcfafff40c0717f8
feef0f100613faf2
04f013ff03030601
10f7ee05050a0afc
03edf2e706ff1bf3
f60af4f4e9070a12
0905f0090409e6fe
f102eefd050c150d
fc0902ff010df309
0c0d01eb060aee0b
09fc040202010714
f8f3f8010b120ef8
0b0df1f3fcf623f2
f3ff0711f9f4feed
04edfcf0f2eef908
f7f4f20cf41100f7
ec0af103eb0f1afa
05f6fff10201050d
0707fe00f00b10fd
0c0003ecf8100f00
0dfef60604f617fb
f9f104fffa0ef2fb
08ee06f4f704e802
0d16fd08ff080c0f
ff0ef7f8eefdf709
0ffcf8f9e812ed05
0bf4f20702ea1300
08ff01010bf9f608
0e100117f807e802
10faffec10fcfc10
f3001104fe0006ff
fc0502fbf1ed09f6
f40df3f6f9ec1200
04ff04fb04f909fa
13f0f407f50a0c0f
0814f9f7fa13ff02
fc04eefafff91efb
05ff1405f7f80b05
f4021707fa12ff04
04ff09faf60def03
06eff6060506180c
0aeefa0a0ef6f20e
ed0bf5fc06f7ebeb
02ebfaf6f70112f9
f8eef2ed0c03ea07
fc090408f7f1ee0c
0cf801f109fdf801
0703fe01f4e90afe
eeeefefe0ff817fa
0a0b0f0d0709fd01
f4ecf2010a0def11
fc130af306eaf1ee
02f0f1fc0eea010c
fa11f6ed07fcf2f3
01ebf1f8040ef111
050009efebea0b0d
eef30cf7f5051af3
150f0010f10cee0f
011004ef040a06fa
ecfefaf7040cfaf2
f2f707fe140b0e0a
f60f05f60a030011
0b0b020d00eeeef6
1001f00efa0a0a01
0d0d0bedefe9fd03
f2030af8f60dfcf4
ee08f6f7eeedf3fd
08f0070ff4ee0710
f0070910f6f5f501
faf30af003fe1204
0c0e13fbf50aec0c
fffdf3f7edf70702
fa100dfe0ef2e40a
01f8fdfd0aee0aec
f902ff0a14f303fc
feef0ef9faf1f80b
f403fbf8ef06fff8
0ffb0af20711f004
09f10cf60bf514ee
050a0bfeef06f4f8
f4fd0d0f04f117f2
f7f70a0a15f00900
f8070e08ee12f404
f409f902f911f10b
00f6ff02020b18fe
11f7fe0510f4fbf1
f1020afcf3f50703
0410fdf404ff0a00
f8f7f40e0f04e6fc
02eff7ef100dfcf2
0cfe1105fb09f707
f614ed0df30c0cff
fe0f0c100815ebf8
0d020d02e8f300f4
030a020afcf90708
0b0807fdfff40d0b
14f2f2020c120b04
fe12010b0bfffced
f00911f0f5fafa00
1009f6f001f10209
0af308f6fc15f20f
0bf7000af20e0309
02fefff10e00eff6
f7f4f3fb00f204fd
03060b04000d04f3
f6f4f1f702f108fa
040a030c08110d05
f00f0df4fa0300e9
130700eb040b05f1
f4fafb0ff2f9ee0b
071302f3f80b14ed
020cfb0606fdebea
050aeff315ef0e0a
0dfd06f2f9fc04fe
f80ff90b030601ef
150e10f30013eefe
0e00f506fafef501
f902f0f5ee03ff0b
f3170b10fdf502e8
f70a0ff4021003f4
f4050613090200f4
f8fafd0304f20603
f70efaf1faefef02
ec0d0efafb0e12fb
f412f613120511f3
05feee0a17f7f311
050aec0803f60b14
f5f5ed090200f011
edf9f80bf4fce2fd
0dfff207fc02f60e
030ff3f009ee09f2
f9fc14fbfc091613
fbf3120e09180e03
e8ff0b0dfefaf707
ef0912fafdf6f8fd
0e02ec0010f90906
f1f30a0205fa16ff
eb0f0b0306eeeff1
eff6f30400f4e8ff
01101106010b01ff
f20bf0fb0b07f109
f6060e02f5f0f9ec
f2fc0109f1f103f2
fcf2fc0b120101fa
f107f9070bfafb09
f7ff07fdf60cf7f5
fcf1050801f50514
00ffef06f6ea05fa
05fa09fcf8ece40c
fcf0020dfffb0af9
fe0ffa0608f107f3
0101020c0502ff04
050ff610fa0dfdf4
0feef0fd01eff60e
010bf1040cf1170f
0df204fffffef7f5
f9eff4040dfde8fd
05f8fbf0fbf80ff7
0108fdf70903fd00
fb10f1fd04fbf607
fd09f8e805eefa0b
10090405f3f1070a
0916edf8f60d030e
f2040c060b0d1110
12f8f5f9f1fc05f9
10f7eff60c09f401
000afc00edf0f5f1
0df3ee04f9fd1010
0102f8f807010800
06eff3fffff5fa0a
0f1af1fcfc01edea
fdecf6f1f5f90b06
0a0bf7040709eefd
13ed04ea0f0b0901
0bfaeefffeeb06fe
f21102fef6fc0ef2
eff411f3fef6f90a
0ef10803e6ec09ed
00fd0bf205090b0b
f3f411f210ff04f7
020112ec0c07f9f5
f708f40cfb0103f2
f0fef206f8f41113
0803f50c10fffe12
00050df0010eec01
1111f306ff0ef50c
14ed16eff1f910ff
0812f2f10717faea
f00df6f7f01218f5
f208fe070d00020a
0cfd03fa0c0918f7
f20bfd0b0c0af7f0
f6f205fafaeffcf3
03ec0cfb0beb0a10
ffeb0cff0d060117
f5f0efff0e150cf4
05060c01ef0601f6
13f80001f8061107
ef10000af3ff1109
00001201f6fd0bfc
120b00f4f3f6fd08
02ff0b0910ee13f1
f5efee0df6f2eefd
07f106f304fef4ee
0a0d0602f4edfaf1
fe0df0f9eb10fd0e
0a0eeb0609080813
05eef5effcfdfef3
ed12f802040af6f2
10f6f7fbecfdf6ff
fa090cf2f811f711
0807ee070ceaf211
f50209130df4f00e
07f7f6000ff5fcf2
06f209f700f6eeee
09f60a040405f60a
f6fa04ebf91205fa
f8120afaf80707f0
0118ee00f5f5f706
f7effb080bf0f4fe
fc0afaf300f1e208
01fc02ffea0cfffa
061909f8f9f40af7
05fb0d05fb0af808
