fcec040909f912f1
03f2fdedec0b01ff
030e05ffff0cf4f4
06f1020212000ef7
14070e10edfc08ff
f30bf1f8f50308ed
060eee0a0502100a
03f808050af9f605
f5fe09fced020ef5
01fd08f408000005
fbf01410ff0c180e
f9fa050205f9f0fc
f406030e0510fcf3
fdf907feebf20b02
f007fbf7faeefa09
f602f30efbf40400
e90bf1eef1fd06f9
f70afaf603021104
00fd16fdf1fc1107
0912ffff020611fd
f3f3f202f603e9f3
0711fe060ffffe15
fef510f404feef0d
09041305efeff7ea
f20606fa0d0af607
ff0dfcfcf1110cf5
eeec03fef20deced
030ffffb04ff02f8
160909fefde817f9
06f6fcf0eafd08f2
0000fd0508f7f90d
10f6f6f90609f100
f708fe0ffff5f30d
06fcf3fe0eedeff4
fbfcec06f711edff
f9f309fcfd120aff
10f9f8f0fe11f1f5
08000d00fc04fb10
0eeb02f3040f13f7
08100309ebfbeb02
0d0602fcf20c0d01
01f509040a12ef08
f3edfff3ee0d0ae8
04f5fcefeb0a0602
fcf203f6f8f90401
f0f1f8f30ffffff6
08ea00ff05fe11f7
06010f10f7ee02f9
fc05f9f8fd03150e
fafdfe0d090b02f6
f000fdf6f0e9e802
fe09f00af0eff3ee
080ef404f310ecf4
eb0e0b01eaf80af3
ffec0f0ff503f7f8
0ff6f2f1f2fff10d
0a090c07ed0315f7
e9fa08f10a0cffec
0e0bf5fafa06f6ee
ec040eee080df40a
ec0308f11008f5fa
09010afd12120403
f00f0d0df8031113
ed1406ecf1fd0c10
0bef09f30b1203f6
fc0009fa02fafc0c
fafd0910f10cf50c
12030406050f0e0b
f8f00801f50a04fd
f40ff6f210f6ede8
0ae810f804f0e60d
fefd0ceefc0c0c0e
fb140308fc0009f4
07fef90bec070ff5
0d14f8f8faf700fa
f90403ed07f9030c
f8fef10aedf307f9
ec05fcf30205f2f4
fa0efe0e05f10c05
fa0109f7eefc02fb
edf90a01fbe6fb0a
09f0f70df506fcf0
f1ec07fcfffff401
03faf7f1f9f911f9
0901fbf5020ae500
f810f40efe13ee08
f80dfe05f6fcf30a
ef0002f106f21305
fcf2f00b020d1508
fef7f10311f610ff
fcfefff50206fbe9
fd02fdf7f9110503
0cfc0df7ef0fedf6
02ec0a080d0ef114
ebfcf300fefa12fb
05fa07fb06faf0fc
06fdfcfa0b16edf4
ecf50bf9f1e90707
0ff7f407f3ed0f0c
f9fb0dfafcf9ec08
f004ed0bfcf0120d
f701fff505e8f00a
f110f403fd060b00
0d0d0406f80e12fc
fbf713ef0ceb0e01
f5f70201f6fa0ef8
f7e9f6fe0902f8fa
0b0dfff7f003f80e
f0fef70110fd0bf9
07020aff0bfe0e03
fbfbebf800ee0008
0ceeff0200f7fbfb
14fb02051016000c
fdf90d0204fd010d
f9f30d0afa07eb01
08ec02f60ff8eaec
f20cfd0310ee0e05
0c0913f4f3f40e14
f104f708f80318f4
fe090308f1e7faf8
170901ed0cf301fe
060efafdf0f20a11
0e1012f6080ef0eb
fd0ff20a0508f8ef
0cf80bf6e808e804
fffa0801faf8fffa
00ecfff8f6eff50d
0006fbfeeff90ded
08faf612fb0b0cef
040cfcfdfff10bfc
f4fa05fe0a0607f8
0b02f9f8001202f9
f1f20c1001fc230e
f60afdf80f070901
ff0de8fbfdfcf7f0
010407fbeeee1011
ff05fb06faeafcfc
0e17f6f8f70704fb
14f1eefaf0fce90c
ee05fdf3030df50c
f709fd1404ed0ffb
0b0aff0ffb100afe
ffeb0ffaf8ffeeeb
0205fa060affff0b
f801f3f1ffffe6f9
f7fa03ef07f5f7ff
05f8f3fdfef20413
04ecf00bf910faf9
0a110305f8f80806
07f2f4fa0cf70305
edf5edfa0006f8fd
fd0b0a05fa0df812
eb0bf2fb06fdedf9
0d13110410fe08ff
0dfbf2100515f412
efea08fd03f60eed
0b00f9edfffb08fe
f5f80eecf4fe0d14
020f0e000803f70d
f9f106f4f3f5f50f
03f90beb0feaef00
f3fef8fd1212ffff
040ef9fafff20f13
faf8fffd0904ec01
f70efaea09ed0af9
0ef807f70910fbf3
0df806fd05f314eb
02f9f7f0f9f7eef2
f2fa0bf4ebf1040b
13f1f203f60ff803
f60d07eefffd0e04
fd1212fa0ef5f304
1306f3020003ee0b
0df8f406ff0805f7
11fefff6f2f3eafc
f7f70c02f6eceb04
fd02fb07f1fdf00a
ff0c01fef2fff4ea
fa0217f2fc06f8f6
0c0f0709f606e9f9
eef8fb0f03ed0a01
0314fc0708f007ef
0b0103fbf6ff09f0
0d070104010601f8
100eee02001003f7
f5f109120913ff02
08ef0bf8eeef14e9
f411130a01f2f4ff
060a0c0df80ff7f7
ee01f30bf019fbf3
11080e0c01f605f1
f4f501f71003f2f2
fc12ffeef7f40306
f2f50802faed0b0d
faecf40ef40f1206
0901eff7f60617f9
f5f8faf3e8fd030f
f1f6f30107f3faea
100f03faef0611f0
f5fdf1fdf9140dfc
f1eef5efefee1bfb
ed010c0af30cf4fc
f7fd0f0305f90913
080afc0309ebfe16
f7f4f10e0e04ea02
06f1fd0501f50afa
ffef09f1ef00e813
fd11f1ed11eef2f1
01fcfaf406f41efe
0204f9f5ef0bfc07
f7eff5edf4f3fef7
05ff0ff6edfef0f9
f4fafbf30de8f408
0c0e010af00b06f4
fff5edf0f30af7fa
0ef6fff40bfd0ff2
ecea0714f702f4f6
f9f1090eec08030d
0dfcf0f9f7fa1209
fd06fefff40e0010
12ff07ffed0af7f4
eef20f00f2fa0810
12ee0e000eff0cf4
f5f8fdfbfe00ef04
f6ffefe9ecf90102
03fdf00911eef407
fbff07f6fb021500
08ee0203010c0906
07060afa0ef30c0a
fd0ef2f8000a0c12
f2ff020dfc0f1015
fb01fa0cf515fdea
f2101001ee08faf7
f600040a16edf006
fffaeb0711effa05
f9080c00f91305fc
f0f0f91805faecfa
040d09ef00f5f3ee
0efb0407fbfa0f17
f1fbfb0f030806f5
f401ed1308ef0cf9
f103060c0ef71007
f8f503fbedf2ecee
f2f00805f0f10a11
070efe0610f3fc08
02f3f1f1f2f5f714
f4ececfcfa0b130d
f2f9f7f2faf8f509
f413100a0d031907
0312f90704fa11eb
070300faf803f100
faf9f4ed020b1016
f4fcf7f7eb16e5fb
0efcf7fd0ffb0905
13f90706fbfaeafa
0d14f106fef91202
02fa08ff1406fe0e
f9fe04eff40e10fd
f70811f3fd01ee13
ed041604f2080ceb
050ff2faee0fe80f
0c00eff7050feef9
0cfdfa090f01f1f3
01f10f00f505f50a
ecf8ff09f2f1ef09
f5fb110c11080404
05f108fa0af51415
f10fec0bfc000ef2
07ed0afe04f404fd
0c11f10af7030dfd
f1f50302f4f30508
00edfff0030df6f2
f50d08f002081f01
0af2000d040ef8f5
040209010009edeb
0d08ff02060df0f4
f10107ed0d15ebff
0a0bf2f9f110fffd
fc1506f6ec08fe11
030601f20ffff6ed
13f0f703ef050c05
f50b000907030cfb
f6f3fbf8ff0207fe
f9f20f040afced00
f10ef70b000e19f3
10fc08f60d000ef7
09f5fa0203fff4f4
f407040e08f4fbf4
0210fbe9f3fb0ffc
01fb01eff0ff09fa
ef0cf7f1fdf7ed14
040f16f40611f00c
f0090011ecf1fc01
010af8fffbea0ffd
0e0cf7fdf7050a03
f009e9050903ecf6
f0f903f103080a05
0803010beeecf104
0d080e01010114f0
0e06ff070308eb08
0dfd0c04ecee10f6
f605eefaf3010709
f8fe000f0cf40cf9
f209fe00f60602ef
08130f0a08050a05
f6f602f9f0ee0af1
0ef0fc0ffeefebf1
040bf20808f30508
ef090ff1f3091408
02eefa02ebf8f30f
f0f0f204f90412f5
0cf50d010403fbef
ee0ff20cf302ff01
0c09f40c01f107ec
10eb14f1fdf7130a
f21204fa0111faed
f5f50aed00f212fa
f9080703e80af314
f311f7fdf2070f0e
02070df5080eeaf9
fceff6ec0303ea00
13ed0af2fd0002f4
0f0bf7ec00ee0ef9
f8f3f7fcfa0d0302
04050cf4ffe905fe
0d070bfa0a0104fa
f311ff03f1030afa
0ff7fb0efdf1ff13
07faf505f3ff1504
fef0f4eafaff04fd
eaec07f309ebeb08
fbf9ef0bfd01fc0a
08f6040c03e705f9
f501fdfd060cf505
f008eb06fdedecfd
ee14f6f5ef0212f9
16fb0eeb0beffe02
0401f906eef2faf4
ecf701fdf2fd12f9
eb13000afb10f112
100cf80b010cfffd
f40ef30b04ec06f0
07130002090df006
0f0e0b0efbf80d0c
01fcf61410fde7f6
02fc010f050ef70f
f603f5ff12f1e8f2
0bfe06f5020df3f8
07100801fd0df9f5
f7140af4faf6fb01
0108ea0c01faef03
120b09f605ecf1f1
06f8f010f0f8f30b
06ec07f2f40af702
0cfdf300090404ec
04ee0e0df4f0fbf8
11ebf6f602ef0a02
0cf9f3f9f30bf311
09f307030305ebeb
f6fbf5fd0608ee08
f407fc07f2fafff9
0817f3fafbfcfafb
fc0c00120606f8fe
fcf3f8fefaf70cf8
0c0306120ff5eafb
0d110a0307f4f616
050b01faef10fd00
0bf8fffc0eebf5f6
0ef612fbf6fbeafb
03010604090c0b0a
0ff50c02f5f7030e
06f2f20609010a00
f3f20700fbeb13fb
e808f20013f4040b
eb0610080efefdf3
f5f7fbf6f6040cfc
10ee130614f6e4fb
04f0f40914eb08f0
0beffaf30af60c0a
11f50a080bef09fb
f8f30af8ed04fc0e
05f006ecfcf9f1f1
0c0d0cf2f104f8ff
f1f9fef400f2f601
