f5ff06fdfff5fbfb
03f5040209fe09f9
03ef0305fd0510fb
edf3f6fc0803fc09
f6fafc060f0a03f1
04faf70606f8faf6
f6fcfaf5f00708fc
09f610fbfffd07f0
fc080bf5f0f60804
03f704010a0bf503
feeefff60dfb090a
f9f908f504fe0b04
fefbf7fb00fbf8f5
0bf2fe06fcf7fd00
fff8f8fb0700fefe
f3050b00f2eb0b08
f70207fcf205f9fa
01faf8f305fc0b0b
051001fefbf60d04
05040a00f7010500
02fefffb0b03fd06
fdfa00f6f7f5fd08
000105fb0d0c01ff
02050b08fa0807fc
f9fcf70d03fcf70c
04ef10f909f0ff04
f50e010cf8f602f9
13040cfaf901f8f8
02060203f4fceffb
0c03f4f2fc0c08fb
0af602fc070a0205
04f203fa09edf301
f902f3f5040a030c
05fb030d08f60907
f4f002f8f0faf205
eefffefe0d12090d
07f5f5050606000f
f70800fb0bfcf9f7
0af6f80409f710fb
fd03f7f509010c05
01fd080afefffdf0
0909fbf7fdf9f7f7
060df806f6fa03f9
0102fcf80a0309f1
f60af7f60c00f4ee
f7fc050f06fc0202
030100f80b0404f4
07090afff3fc07f6
f4fb0dfef009f7ff
ff00fd07f606f5f0
fc04f5fcf4fff30a
06020302fffe0bf9
f2f7fdfe080202f6
09fdfb010006f9f5
07fa03fb0d0505f4
0100ff0907040c06
0c09f0fa0cfe0cee
fbf500f4f7f6010c
f6eefe0401040bfa
0504f506f6f10f03
f506f40f0bfcfb13
f50cfc0cfaf80503
f8fef3fef50705fb
06f7fd01050cfd05
010407fb070c0601
f6050b0f0bfdfb0b
fe05f5fef5010000
fffe08fcf7fcfa0b
05001508f4faf6f9
08f1f9fffef505f6
f8f2f403000ef8f8
f7f501000c030105
0bf4ebfdf1f5f9ef
04f9f7ff080003f6
fcf20206f90209f5
fe03fa040301fafa
f2fafd05fb08f2f4
f5f9010cfdf3f804
fd0301030df9fcfb
edfd0a0602fbf6f4
04ff12fdeffdee01
0c01f9050303f406
f70afa02fdf80304
07f9fefcf2f3fe0b
08060ffbf9ff0608
f6020c0bf50003f6
f2f003fc030908fb
0bf9f7fdee05fd01
020602010df8f40c
08f9f6fafc03f8f9
06010cfa070afb01
0005fdfe08eff3f7
06f70b070df8fdfa
fbf4fdf301fcf6fa
070804f9fe0afd07
f7090509f6eff6f5
0b0af704f6fdf300
050af107fef50101
f2ecfa08f7fdff05
07f608fe0407f5fa
fcfbfaf806050a00
090505fffb05fff0
0a0df6f7f3080af4
0ef901000cf6f90e
fa090a0409f108ea
f8f8fff7030a07f9
0af2f90afa11fdf8
11f5f708090608fe
fa02020609f5f5f6
fdf3faf706070004
030e0600f30af9ff
f500f10b09f408f7
f2070306f301fa11
fbf8fd0805050403
f5fffbfa020109fb
1102f007fd0f0ef8
06fd07f7f5fffff8
f80e0907f2fe0707
f00506f6f7010602
12010bf3f3040000
0eff100cf0fdeffc
0a0bf5f805f3f9f7
fb02fe05fafe0a06
f608f7f800f2fb04
fb07f605fa0bfc02
07faf3fff9f5fc01
f5f10a010afff8fa
f008f305fa0a0b0f
f5fff30a02fe0700
00fdfdfb0209f90a
0008f400f2fcfa01
f9fb08f7f9f9f4ff
f70bf4f4f502fe0c
06000b0bf5090c07
fcfe02f30b05f204
f2f4f8fff0edfb01
0507f2f8f410f713
0df3f207f2fc06ff
00f8f3fc07f6050c
11faf6f7fd06f6fe
fcfef5fff700fef3
fd07fef7f9fc03f7
f9f5f3f8f90b0efe
ff00040a05f5feff
f8fef2f70a05ff15
f60afefffbfff509
f503fbf809f10afe
fdf40e090111f308
fcf909fe0c0df1fe
fafdfdfdf60b0805
04fd0004fe04fcfe
03f80a03f40d0005
f1fdfdf7f0f70cec
f207f81000f5ff08
0312050af6f51005
fffc04000615eff9
f9f3ff060af8f0ec
fd05040a01f804f5
fb10020701f5020c
f70105f9f50efafa
01f5fd0901f702f5
f404fb040dfaff0a
020500fcf6f5fdf7
f300f007f601f606
fdf7f6f9f609fdfb
03fd090ef8fa0808
040bfcfe02f60a07
fe0bf3fa0d00040a
07f9f308f504fff3
01fef50108fd02f5
02020604f3f5f50a
f3f8f6fbf504fa03
03fdf30703ff050b
f9f70701030600f4
ff0bfcf5f50cfaf4
f7fef409f5f5f50b
f8f311080903f503
00f3fb0b04000401
f6f9f3f802090af4
00f70401f8f3f508
0bfc0cf60a09fc0d
0b0c0af6fcfdf400
f90bfdff070404f7
ed01f1f608f2040a
fdfe0afa03fcf800
fe0004f706fafaf8
f7fffdf9000c0109
010605fb0afffe00
f8001102fa01fcf4
06080401fe01f701
fc04fdf707fef9f7
0d04f9f9fef50102
f0fefe0907f2f40d
06fc0bf6f3f90305
f9f309050d02fe0b
0ffa0803040afd05
05f9ec09fc0cfb0e
0503fe0206040702
0010fa040cf70af8
030af8fa09faf4f0
06f9fbf403050aff
f6f804f10302f8f7
f9eefd0b0efef002
fcfff808f700f8f7
0b09fff40df8faf9
fefd0b00f60ef809
02f60007f1fb0504
ff0afe07ffed0afd
0bf5f2fb0afd03f4
02fdf304f80b08fe
ff03fbf501080604
0108f1f8f4000afa
10fa02fdeef7f903
04f90e00f4f8fa01
f20404f4f6fdfcf6
f5f40608fe0df7ff
f90313fa03ff06fe
f600f507fc0a000b
06040904eff1f209
f50105f6080308ff
fc0509f405fd03ef
f803060605fe04f6
fe0bfa030a05fef6
ed04fffbf909fd0c
fa05fd01fd080800
04f2fb0cfff9070c
09f7f30408f70af9
f7f408f606f1f2fd
0e08ef090bfd0908
fbfd040600f8fef6
010901f6ff04f60b
f407fef8f61206fa
fbf5ffff020a0608
01fdfaf106ff0304
f20ff5fd0e03f603
0809fcfd0f0106fa
01fe10f30f04f404
fdf702030c00f806
fdeff5040e09fc0a
f3f7fc08f0f2fff1
fa07f7f70907fdf4
fcf6fd0f05fcf7f0
00fb00fcf6040e06
f7fd05ff01f1f902
fef7140c010c000d
fe0003fffceffa0a
f8f5f4f4fc06fb05
11fe0507090bfd0c
040408f607f40a0c
f506fa0402000800
09fa07f7f6f40907
07fa0b020b0ff2fd
06f703f70708ff11
02f6f70a070afa01
080109f50509fdf6
0ff5ff05f901f70b
02f7fe03f8faf4fc
03fafff8f301fff3
f9f7fbf503fc07f6
0cfcf8fefff90a04
f6f7f6fff1fc010f
f7f903f004fefff3
0509fcf6f9fc0709
f6020802f4f7f7f8
f60909fd03fbfcf5
fdf705f202f10bf4
fd0cf9f4f70c13fe
0508f8fd06070cf3
080009f5f3f9030b
fbf4fa09f504f9f9
0100fa000c0904fa
f9fc0a06f50dff09
fcfb0f07fffeff0b
f50d020af802fafa
fd0e03f8f609fcf9
0d090c01fff509f5
fc0cf9f70402fff1
01f9f4fff8fa0107
03ef0405f2fa03f5
f006ff05080c04f7
f10a0303ef060cea
0e040af500f5090b
f3100409010aff05
effaf6f3f10901f6
fa000df9f0f105f7
fffcf30a03f8fb04
f2fb04f9f1f505f9
0afbf1f8fb0ffa00
ff0c0cf606f90710
0bff05f9fc09fffd
00f703fb030b06f7
f008f4f5fc06f3f7
00040bfe0904f8ef
02f304fdf708f5f7
f114f6060c07f90c
090afa06fdf8eef3
fffdf7080a0201f3
090407f10408f703
f3fcf7f6f2f703f6
0cfef8fbeff6090d
fe07f10709030911
f8f7f9fcfa030a04
07f6f3f8f003f206
0cf20ffff10308fc
fefcf1fcf5fbf50e
fb0002f1040c0902
06fdfef503fff2fb
fb0905f6ef0302fb
02faeef4f3fd08eb
fef7f80ff801f608
0305f6ff050600f5
f809f2fd06ecf704
06f8020b0cf40e04
07f308fe04fbf8ff
050ffd0401f0fcf3
fafe05fdf4fb0bf9
020a01f7060c0aed
f7f800f6faf6f902
fdf6f3020400f303
09f4f508fd03fdf3
fffcf805f40403f0
0a08040d06f300fb
0502fff4f4f8f30c
0804fdf5f5f0f600
07feeff806f6fd03
fff7010601f6000a
f607ff0607fbf104
fe02f1f7060fee0a
fef8fffdf5050b13
fd01070afb0302f8
f6ebf90805f1ecf6
11fe08fa03070109
0e01edf1f9f507f9
0afa0a0907f706f7
f9f5000106f6f607
f0fe08fded0f0c06
fbfc0d0605060105
f70b030e06f4fef2
0df003010401fbf6
fef80c000cf8fef4
f5f2f2f507f109ee
08f2f9ee070a0afb
04ff030af40e1409
f404f505f2fbf8f2
fbf30e04fef701f7
ff06f70c00fb0afd
0bf7f8030c0d15ff
05f3f3f80f1100fc
f30208f6ff0d090c
040af90b07f5050a
f6edf0000106030a
fe02f5f5f90f0a0a
f50c120b0909f101
08faf40f0700f807
f90ffefe0f040dfe
0af505fdf3f7fbff
07fcf20403fb00ee
060ef4f5f5f5f704
00fb0904050307f6
fe080500f1f30805
fd07020bf508fbf0
fdfe030ff50af801
f901010901f5fbfe
010501f8f8f7ff06
f900f9f5f104fb05
ff0af801fb0af80c
08ef0bf9f60903f7
080802f6f30309fe
05f7effffe0605f4
09f8f70608f502f5
02fbf900f0fdfaf7
fef5060808fafcff
fbf7e9f902fb05f4
04f3050c09f8fbf4
fff60809f3fdfff4
fd0701f611f50af6
f902f110f2070914
ff0603ff0402f4f4
0601f4fff90a0103
0b02fdfd0304fd0c
fbf7edf304f40509
010bf109f9fefbf3
f6fcf3010bf707fa
01f704090aeff607
