070907040d0b0312
0c000a0bfe070008
fc04f8fbfc0cf100
10faf3f9f8050102
fbfbf3fefa0b07f9
fcf707f3f5f708f9
f5eff9faf30bfc08
f9fef5f9020ef60e
fcf901fdfc0af8fd
0c03f6fdf7050503
0801fff705ffef09
fcfbf5f6f40b0af6
f9fdf801f8f7f207
07f20a060201fdf6
04f2f8fbf8f20801
0af7f8030a08f2fc
f4fd0108f4050b08
fc03f50c00f2f707
f9fe05fdfaf3fcfc
f5f40c0bf4100908
fffa17fa0c0ef701
fa06020d0b060607
0800f500f20ef2fa
fbf80a030cf6040e
03f6effef30e08f0
05020dff0802f4f4
01f7fc05fafb03f8
fefa0a06f6f9ff12
0701f6050208f4f0
f800fdfe030b07f8
03eef80608f7f2f9
f1090a07f7fd0906
09010d0903f70e03
fa02f904fc08f605
f601010b0506f7f6
00f4fd0bfb0e050c
08050709f201f005
f4f1fb03fbf5f5fe
03f7f601f20df3f8
10fdfef80404f208
02f6090904fff4f2
06fffe10f4fafe03
f9f3f3fdf307f0f8
0cfb0604f30700fa
f5f508080a030305
fc070907fdfc0106
03fe0205090df400
04f5fcf702f6fcfe
faf70b01f20905f0
0dfd010a02fcfa04
07fef3030806fc08
fffe0dfef50ff5f4
0803ee09fb050610
fdfdf5fbfff70607
04f6f4030a080b04
09f5ef050bf9f4f5
fbf6e9f4fdf0fff7
fb01f604fef3f80a
07effa07f5fb06fb
1008f40402f708fb
0ffaf4020c05fc02
fa0002090ef7f30a
fa08fe05fa12fb02
f20af7fc01faf9f2
f8fe1403f506fef9
0bfcfef307f1faf9
f70ef7f8fcf5f108
fbfdf4060113fa00
f600fef90306f80c
01f9f90203fbf208
fff70205fbfbf70a
0808fe00fc13f7ef
070201f0f5f2f707
01f1f50500f2f6fa
01eeff02f40a0df6
f604f805fbff0b08
fb09ff090903fced
0c0106f5fafa0a0b
00f7fe0909f501f5
f4f90d0302eff907
08feeffef5fb05f7
0a090b04f8f607f1
fb04fb00f601f70d
0df5f2fef9f701f1
f7fe1006f2fdfa16
f80c00fdfe02f4f0
09030707f803fe0b
f800f5f5f10103fb
0600f1f505f3f7f1
f7f7f5f900fefbf5
0409f5ff0ff50102
f2fdf30408f3f1f8
f50bf5f505fc04f4
fcf6f7f1f6f3f50b
f409f9fafe03f0f8
f5fcfafd0801fe06
f1f3000706f4f00f
fcf9fd0df303f502
02eef9f5f3fc05fd
f3f8f8fa07edfdf6
09fb16f3fe080102
fcf302f0f8faf606
070f03f8f2f5f600
0609f6f80a0f020e
01f20000f104f608
f806060008f9f6f5
09f50309f302fbf2
0701fd03fefc0bf3
03090009fff5f6ee
04080aecfafe0102
0c0609f50af3fcf2
ff00f5f7f7f30301
fdf3f6f40af1f804
0800f60b050904f5
f70ffefcfd0bf2f8
0dfff9f8fb0c00f4
020c0a0907f5fafd
fe0bf5f70604fffc
02fb06090c0afd0b
0c0a0305f9f5effe
0302f0f90103fd00
08fdf7f20bff0a0a
f305fd08fcf3f007
f408f503ff090afb
f6f70301f7f3fbfb
fff9020003fd09f3
050b020a09f4fd08
f2000d09fc0dfcf1
02ff0b0efe030a14
06fdf61108feff06
fb0d03f4f902f50d
09f3f2030ffe090e
f2fa0df1fdfe01f6
ff09fb0a010a0a0b
faff01f5fbf70bf5
f4fbfcf904f807f7
0204f0fff9080bf1
01f6fdf6f8f4f8ff
fe04f9fcf0fdf00b
0afaf4f60b04fcf1
02fc0af208fcf80c
fefbf610f4fdf908
f609f903faf20e00
000601fbfc010ef0
0500f709fcf6fef8
fb030a0d09fe01f5
ff020bf7f3faefff
06090bfa0a08f1f1
0afb14fdf9fdf300
fc0307fa0a0704f9
f80300090efa0ff9
0704f904090b02f8
0cf9f908fef5fa06
f507fb070a0cf804
f807fa0400051507
ef04ff0307f9f1f6
09f7f10ef408f4f8
08fefa02fb02faf9
fff7f8000e0f00fa
fd01f3f700fc05fd
f4f7040cfef3f7ea
0009f2f4fe06090e
0bf101001007fefc
eef8fdf70403faf3
fb03effefc0c0100
02f2f6090a05fbf4
0d02f6fc0afff906
0cfe0dfd0a0408f0
fffbf4f5fa0b07fe
f4f4f409fff40309
fb0cf400ff070d02
05f8f8f8f6041207
02fdfd0cf70b0508
f9060802f3f7f607
f2fa030700000401
f20202fb01f303f6
f8000401fdf60b03
fdf9f711f3f7fb00
f7f7faf40909fcfe
f506fcf8fced010f
fcff05f80bfc02ea
080af9fe05f4f307
f30c050407070b01
04f7f6f9f8edf407
04000bf104f500fc
0d0a07f7f40a04f4
f1f20100fafa0105
f4ff0e0002030c02
09ff06f7ee0cf503
fcf40e03040ff8fd
0a010608f603f703
f0f607f8f505f7f1
fdfdf00cf7fa0904
03f5080605fdf8fd
0814fd070a02f903
00f7f1f5f603f20c
f4fdee0cf607f5f0
00fefef40606fef7
f805fefffa080df9
f801f907f10af6ff
f3f90d04f9f2020b
000200fb0901fcfb
f5ef0bff0705fef3
04fd0afcfbeff80a
0100060006f403f6
fe0dfc0bfc02fd05
f902fd0604030e0a
11f50b0100fe0f0e
f5f70ff80d0bf8f9
fe08faf604f3fd03
08ef070a0a060b07
06faf0f7fff7f50c
05f8040a0602fe11
030b0bfb09eff9f1
f411f402f8fd0c04
f8fd07f60201f909
f4f6fc02f50000f3
0b04f8f9fcf8060a
f2ec0808fb090403
0308f1ff01060aff
fdf807fcf60b050e
ff04f5f0fdf5f5f5
0505f6f70afafefb
ed01f90708f4fdf5
0a01ee04090902ee
00fdf20d0707f6ff
f6faf303f50bfdf6
f4fafb03f813f4fc
02fcf208faf90ef7
08ff040bfafcf6f8
0405fef8fa010207
08090500f4ff0cf3
08f7f803f70afb04
020a080d040506f7
0af1f505fbfdf305
fcf6f8fc071205f0
0109f0ff0d0afeef
f801f7f9fe0404f4
070d07090501fbf2
f6ff020203effef4
fafef8f6f8f300ef
05f70204060af4f6
f909fb000505f3f2
0e02ff02090ef6fa
0afe12f302f6f1fe
f809fa110405fef2
071004f40905fbf9
f2f20702010603fd
f90800fe0f0509fa
f6f60c01f5fdf909
f9fb09f9fc050dfa
0f02fe05fb0d0cf7
f9f7030af0010113
fcfdff0200f507f7
fbf605f608fc01fb
0a00030305f7f108
000904f60302fe0b
02f60407f7f8f9f4
081702fd0d05fd0f
09ff02fef8f30507
f805e7f2f90808f2
fa0506ef09050904
fc03fff90dff10fc
fb02fffef4f6f8f3
fcf1f2f7fc07f3f4
ff03fefffaf10b04
02f201010cf40d03
0cf8f5fcf2060af5
0bfcf106040803f7
02f4fd050b0b0206
fcfaf50802fc0d00
08050d04f8fd090d
fafd15f6f80205f5
fa0a0a0d08ef0a07
f40300f5f1fdedfb
05f80400fbfc0408
f807f8fd0cf303ff
f90501fd000700f9
f8f2fd0606fcf2fa
ee070ef9f207030c
0803fa0509040206
070b0a06020c03fc
f906fa00ff021003
0b0afdf3ff090b0c
04fb10f4fdff020f
06f8f50502ff0605
fdfffbfcf8f30800
03f70afefefd01f5
0200f2080009f3f9
f9fcf50408fefef5
0c11030afa0bf703
0400f7fd080ded08
f90401f500f4fb05
f3010d00fffef6fa
0cf500020d0bfdfa
f006f500faf20807
f1fd09f8f5fcf902
f50cfc1109f70503
f20aff05faf1f805
f80a0807070ef7fa
04f9080df7f6f8fb
00fbfcf9080b0102
0afcf7f8f9fafa0a
0efaf2fa07fa0004
f30c050206fafa07
0806fbfffdf8fb00
07050a04000500fc
f5fcf407f5fc04fe
0a0807f6f9030afe
f802f303f1f4fcfb
f7f901090804f7fc
fdf409f6f20007f9
0ef3eef6fcf70200
0803f203f70a0801
f9f60af7fff40f08
f4f80204f005f201
0efbfff4f9fbfe04
09f4f5030e04faf7
03f3030bf9ee0404
09080efbf406020d
0af5f7fc0603fa14
f60407040409ff08
09fb07f8f906fd0b
0502030301ff03f1
07fef80702f90b09
0205fff10603f80b
07110b03faf00201
fcf509f9faf1010b
f206e6fef6f7fdf4
f5ff050df90ffc01
f80107fa0df0f701
fa0b07fd0aed0b05
f502f70bf10bf60f
0501f6f1070300f9
faf3f6070af4fa0b
fffcf105fff5f80f
f9f5f802f2f5f30f
02fe070700fbf9fc
fd050a050b0ff403
f403fafcfa0e0306
05f40df504f5fb13
f900f4f0fc0c0af9
050d02020307fd05
0bfd05fa0c0204f2
0df716f8f2f5f20c
040bf9f90c07fa0a
f501f7fdf7f20900
f8fdfc00f7f50f03
f501fffcfffef201
f8f708f802070201
f8ef07fef3fbf8f6
f409fcfbf504fa0c
04fa00fff800f60d
01fdf8f5f6f7fe09
040c070704fdfe03
10f9f703fe0f0a06
080404f3f8fefb0d
0203f8fff5fd06f4
fc010afbfffefd03
f102fe09f305f7fe
0802edfef50cf40a
f5fd0a05060af6f5
f901f8f4f60e0dfe
0403f2f309fe000c
0b0af908f1040b06
fb0408f8f503fcfe
fffa09fafe0b0bfe
fef6f501f2f50609
fbf60d020501fe0f
03fef412f50605ff
f3f0f7f5fcf10b01
fd09fffe0607f1fa
06f30a090003fbf5
09fa060ef607fefd
0e0f0402ff000200
01f5f4090300f506
09fc120af2f1fd07
06f6f70500f4f8fb
f5f0fdfbf50b07f8
0000f8f7000cfaf9
0cff0bfd01070201
0bf50211f4fbfdfd
08fd0309000d0202
fcf502fafdf807f6
