050107090c04fefe
0909fbfd040cf3f0
f5fbf9f9f109f4fc
08f70305f2110403
fbf4fb030507fbf6
fef6090c0af6ff02
02f8fe01f5f4f409
f2ff1107f00ff9f4
07faf5f6f60002f5
0404f4f9f609f407
0500030405020f0c
01fb0bf40802f404
08feedf805030cfd
fb0cf800f8f00004
f7fdfffd0bf4ec04
08f4fb0609f60006
f905020b03ff0cfd
f805f2fdfd00020c
0a08f7fd0403f507
fcfc0a06fd020e0c
fdfa15f2fa0e0007
0604080c03f40005
0bf208f9f90e0708
eeff02f903f70a05
06f40b08f003fd01
f4f80908faf605f6
f4100302f6f90701
f305ffff03000af8
faf701040700f1ef
02fcf603f3f60407
f5fff6fefb0105f7
f9f6fcfe06000805
f201ff0bfef9fe10
f2fa040701fff4fe
0bf3fd0606ef04ff
fd02040a0af7f7f8
f7fffdfbfd01fff4
fd0900f1faf4f808
fef0f50afc0600f2
fef905fa0314ff06
fd0c0ffbf206f40f
0d070905010bf802
faf8050802fffa01
0cf80001f6f3f80a
0302eb0c0a0002f2
0c0805f3040bff05
f4faf307f6fb0609
0b04eff8f700f501
08f7ee05020bf1ef
050b0706fcf00100
f111f7070a000101
05fcfaf40202f2f7
02f8f4f707f9f907
f6fbfcf6fb070604
02ec0a08f7020104
f1fef2f9f3f00b01
0a0401fdfd0bfd12
fc00f8fb05f4f80a
050ef807f70b0307
f3fbff010cedf8ee
fb06110e06f1f001
02ff0cfd06010105
f3f3fd09fcfe0bf5
0bfcfd0100fc07f6
0afaf1f5fef40202
0b0b03fd08f7f8f7
0508f80504f7fbf7
ff030805fbfd0b0c
030a0505000a0af6
00f603f9000af601
f711f50603f7f7f6
08f4f606fd0ff3f6
f7ff03fc0df3fdfc
05f607f5f7fe09fc
01f5fbfdfe07fcfb
0ef70b000e0c000a
070decfcfdfbfc00
fcf5f410f90afcf3
fa0cf5fcf9040f00
0d0603040cfefc04
08feedf3f7f4f6ff
ff0cff08f4faf400
f708f2fffd00f6fe
0b0502fff30cf40e
080710f6f30bf30c
fe07fbf301110207
f3edfbf80d0c13fe
f2fa0afffdf1f0fb
fe0b03fdf708fbed
f7fcff08f2060206
090c00070a0c0308
f307050afc0f0a03
09f214fe03fdf1f0
0008fd0e0206f509
05fcf601f3f00c08
f601ff050a020ef9
0a060c01f2fefa0d
ff0cf8fdf8fcf6f6
fb120af8f602fd01
09f3f6f7f60cf704
f80bf8f70609ff00
f80cf7ff030c03f0
01fafffdef01edfb
06070af6f80afcfe
fef800f809f202f4
f2f8000301eff704
fdf801fc020306f6
fffcf7fcf300f2f8
0602fa03fcf7f4fd
f5040a0103fbfc00
fb06020bfdf3f4f3
02f6f1fb0bf208f7
fc000d090305f113
fa0bf70b03060601
09f103f9060df609
fe03f7fefb05fdf5
f40603fdfaf6f211
ff0908fbf30cfaf1
ff0cf6f60b0ef40c
f3f9fa05fa0eeeff
fcfef20205f90800
f8fa09fbfdfaf6f6
fd05f0fffbfffd07
00ff0704050bf905
0403050e05fb0a0e
fc0df20309fef9f1
f61306000e01f409
f804fcfcf4f8f30d
12f40c080e00f709
010b00f9f309f2fd
0ef4f3f3f602f00b
f8f601fdfc04f30b
06f309f5fdf30f0b
02f7f9f3f90d0907
fcff0b01fef5f9ff
0e01fbfcfdf9f4f0
f9fcf2fa040cf9f5
fafb04faf606f9f2
fb0df1fd0304f1fc
faf60607f60bf7f1
f5faf2fef7fe0512
0600f10607fa0608
07100401060806fd
f4090dfbf50408f1
f40af4fd0c08f5fa
00fafc06f5f505f3
f300fafe06000f02
0cf7f8f708f5fcf6
fc0208010a090c01
07fb0aff080704f5
f7f004f707ff04f2
f3fe03ff0b060108
fdfa0d0409f4fa10
f009fd10fbf9f903
07faf90cfbf4f7fd
f8fff50b0af2f4f3
f7f506f705f7f300
0504070e010dfff4
f6f409fcf6f40f0c
f3fc00fbf20dfaf2
f609f3f8fcf7f7f8
f3f504f5f7f4040d
f306f9fd04f30a05
0dfbf901f803f4ef
f809f9f4f70b05f3
00fa03030c0ff6fc
01f1070e05fe09f6
fdf8f103f50707ee
06fbf704f3fff00a
0af9f400f601fffc
05fcef070bfbf000
0d00f406faf40901
0508fffc0108fef2
0bfa0805f3f803fb
f81003f909090107
0ff6fa00f50d0b0c
fdfe020104fb060f
05fcfb0303f407fb
fbf2030306faf6fc
fef5fd0a0beef4f0
fa09f4f2ff0efaec
0a08f3f1faf90807
fa0b06f702f40bfe
0bf403fff8f4ee06
010b000af604f4ee
fbf30a09f7fa0bf7
f3f709f507f2f1fb
0b04f3fdfb0cf2fd
020aed0bfcf4fef5
fcfa020cfb09fff5
fbf8fffff7fafdfe
fe04f8ffff1402ee
f3fcfb0ef60a0bfc
fa03f70607fdf5fe
06f504000b0af6fe
0801f3fe05f402fa
ff050cf70a0603f0
fa0801f80009fcf6
f3f202fcf6fc04f8
12ff09f8f90c020a
0706ed00f7eefbed
f2fb0709fc0c07fc
04f101fef707f4fc
00fc02f9f9080e02
fd01f4f10d0201ff
fc000af6faf3fff3
f8f1f4050504f804
0b09fcfdff06fdf1
01f6f106060cfcf1
fff1fc01fafef2fd
02f40407f503ff06
eefe09fc0bfdeff7
07f618020910f700
fffd04fc05fe02fc
040e02f6f505f501
f8fe04fcfcfbf6f9
0805f90006fa08f0
08f507f3fbfafe06
f00009fcf3f3fa02
0506f7f909f10c0c
090b0df9f0fffceb
fb06f7070c070200
000803fd090afafc
fa00070603f5f5f3
03fd09f80e0af3f1
03fe09f80209f8f9
0bfff4fa04080d04
f7fd09f6fa0500fa
faf401fff10c0814
fdfe05f1fd0b0aff
0ef10603f9f7f7f4
10fdfc050d090406
0af30404faf0fdec
05f501f6060707fc
fdf00308f60611fc
f5f8f0f8fe0ffdee
0d020a0305fa080d
fcf105fbff05fe06
00fdfcfd0b030405
fefc0c070902020a
f0ff110df0f509f9
0702fd0703fc00f0
0901f305fa02f705
fef9f40304eff90b
12f4fd08f50af8f0
0305f5fef2f9f5f1
03fbf602fefafd01
0b03fef7f8fb01fc
0909fdfafdfa060c
0600f911f30601fa
010b03fb02f9f400
fff90007f6f9f709
09080c0dfbf4f002
0107f303090c05f3
f3fff6f6fefaf7f9
f9f807fbfeee02f0
0102f4040efcf1f4
05fcfdf2f8f8f905
0610fef301f91401
0ffff5f60003f204
f207f50601f70308
02f3ff06fcf8050c
07eff405fd020df9
f0080805f60304f3
f8fb13f80200ff00
f5fb040df2fe0b00
fa0c0209f30dfcfc
01f6f90309fe0cf4
fd09ecf5f709f8f7
fd05f40404f408f2
06fc0904f302f504
1103f3060cf70f09
0800f0fb08f50308
f6fa02fcfbfa0706
0b0607f607fef7f6
0507f507f701f804
09fff605f901f50c
07fe090c01fa070b
00ef0005fc07f1f2
ea040608faedfb0e
ef030a07fefafc02
06f703060209f70b
fef4fa00f4f9fbff
fcfbfff900f4ff05
fc0107f60c0406f7
02f807f30108fd07
f9fc010002f310fc
f7f6f4020a00ff0c
0c00f70bf5fcf8f6
0bf2fcfa0906fe0c
f31009f901f4100b
f8fb0003f50b0bfd
f9fced07f502fb12
fb0a020304fefb0b
fc0ffb0cfa000bf4
f700fa04f71304f1
01f6ef0509f609f8
04030af7f71007fd
07070701fa070efb
05f70107f605fc08
fafbf8f20104f70c
0b03f90af7f5f4f5
0c0cf6f5060d02f8
0afcf004fafb070c
f5f8000dfbf1f9ff
f30bf6f8fdfdfe08
04010a04f1f4f1fa
fcf508fff6fe0201
07031203fff5fef1
ff05f811fffa08f8
04f8f1fef70b0603
03fc0a020000010c
08f7ec010f0405fd
fdfe090afef602fb
fefdf9fefafbfff8
ecfa0208fa0309f1
06f9f3fa0d0bf306
f8f3020a0a04fafc
0af106080000f6fd
fe0700f5f9f4feef
0204ea08fcfcfcfe
f604fbfef6f7f5f1
f5fdfef7f00c0f03
06faf9f50a00f3fe
fcfe110a01080000
05f50900fb0bfc04
f808fffb0909ecfe
fa010df8f0120103
0109f5f5f20afc01
fb0c040108f6f7fa
f408fbfd04f300fc
f10303fcfdf3fafd
0cf702fc02fb0bee
01fe080a0bfa03fe
0008f604f3f1f102
f2fefbfef1fb0dfd
f206f1faf8faf6f0
01f7f908ff0b0709
000201f9f502040b
f6fc010202fdfc0e
f3fbfa0a0102fff5
fe050907f6f70a00
0e06f606fd0f06f5
f0ff0df808f20105
fb0017fb110107fb
fef109f507fef909
f7f6faf8fc0ef1fe
0af90af8050a02ff
030304fbf3ffefec
050501070d0af5ff
fcfd08fff4f902fb
04f9fff9030f0dff
0904ef0c03f9f9f4
0afaf202f307f6f9
07f8f9f8020b1002
f3fef3fa0f0e01f4
f9fe0bfdfaf2f3ec
fb06010e030306f8
f403fb0608f5f300
f2fcfd04f702f6f5
fdfe0bf9fff70004
03f20afdf404050a
0810fbf6040afc07
f5f9f2fcf1fbf7f8
f106edf60b02070a
0605fb09fa05010a
f8f2fefdf9f60107
f7080c02f90b05ef
0af6f6f3f5fe09fb
060b00f5f20bf9f8
fc0cf5f60705fa07
040103fb040af807
f605ecf80608070c
ff04f60bfd0604ff
0b0cf4f7fe1215fc
fffaf802f7fcf2f9
f309fa09f6fcf8f5
070305f404fe07f2
fd0bfffafaf81100
13fffeff0a0a0aee
f60a150df8090008
02f708f4f2f1f6f4
fc04fbf9fe0f0c0b
eef60f00fd10010c
