0906f4f0fb0c0100
fb040e0b060a04fc
04fd0b06fd07070c
f9f400fafe000b0f
fe0efffa08f10607
0df9f0f8fb0bfb06
0bf50c07fd09fcfa
0bf7fd09060307fe
00f8f9ff0afbfbff
0209f809f4080ff2
0009fdf20e120809
f5040cf40005fa00
0cf6ffff0bf30e00
08fe09f10500f80c
fcf5fe080d03f1f8
fbfdf10f04f5090a
fc15faf212fc09f4
fcf3f100fd0606f6
ff000e0a060ef205
08fef90d090f08ee
ef1008040a040908
0809f503060d0101
f20207f3fd0efdf9
fff8f5fa10ff02ef
0a0c030a0107f3f8
f3fbeffb07f7050b
0009070e0f0a0401
0003f5f40d04f208
0506f5fdf4020607
fb0e10010003f2fe
f5fc03f6fdfd03f4
f2fbf10f09f6f80c
f1f108f70bf3fc09
faf309f9f7f4f308
fe07eff0faf40f03
f90ef8f2f806050e
00f20303f3f2fff4
02f407f90b0ff1f3
0cfd03f4f2f60009
05f1f90407fc02f5
0c100705f80c00fd
0b00f000f503ff00
0b0409f80ef8020c
fefffcfbfef0faf5
f901fcfbfb050609
0d0c090af1fefaf7
fff5000ff10df503
00ff0f0b0df20f0c
eceafc0df10cf004
06f508f9fdf50dfa
0000f504f8000b06
04050b0bfd0e05f9
03ea0b0609020d08
00f70e04f801f2f7
02fafdee050b0dfd
06fa09f7fc091201
15fa080e060a07f5
020a0304f3f4f5f6
030301fef0fffdfe
070a0dfef7f60a10
11f60a00f4fbf405
030f16f5fe040d0b
f4f9fa090f040003
030802fbf4f6f6f7
07ec0afc0102f901
07f0040cf40105f1
0508f309fb030507
0a080ef402fafaf6
0deef9eef5faf7fe
04f7f80a05070f08
01fc06f707100cf1
0a0af4f60808060b
e9f90afdfb0cfbf4
07fb0ff3fffc06f3
f6f50f07fef6effb
08fff7fc0208f1f1
f8fffff3f2fbfafb
06f5ff08fcf80b00
fa04f30c01f1f60f
f3080df501fc09fd
f402fdf3ef01f7f3
f9fbfcf2fb0a060a
f8fd010e07f90ef4
ff02f802f9fbf2fc
f406010806000206
fc06fe0909fafd0b
fb0af1020bfcfefc
00050e00fef80802
1109f500070cfb06
0af404fafef1f80a
0cff0aee060a0bf4
0a0007ee090711ed
f7edf4f9faf90812
0cfaf9faf210fe0d
f905f6faf8fb090f
07fa08030f0907ef
f8f7fff10601f70f
f4fcfa03f404fc0e
0702f2f1fd0e060f
f5f808fc0805fa00
fdedfef6110501f6
04f6fe06f4f4f307
0cfb01f705ed0412
f3f702f8fa09fff4
0a0afdf700070bf7
f801f3fe02f60ff3
f5f709fef4f4f7fe
fc000c01fcf910f6
07f9f40e01ef0bf7
f3f5090af907f702
0b00000cfbfbeff8
fef806ee05fb0e0a
ef030d0005f2ff0f
fe0af0f8f70c0cf7
f4fb030af9f5f1fa
06040104f6090c0d
0cf408f80709fc08
ff02fc04fa11f0f3
0707f9fafe0c0af7
01020efa0c0ef0f3
0bf907f5ef0dfb0c
00100b08070dfafe
f6fb00fcf4030aff
01f7100502f5ef06
0b0607edf70ef8f7
0df800f9f8edee02
faf70dfbf0f605f1
f70c05f6040efafd
11fafdfc03edfc03
0908fcfff8fc0cf2
fe03fb0007f5eff6
080efdf609f7f405
eef90b0ef104fa05
fc021107fc0305f6
f20909f2080cf205
fbf0f1f0f50ded0b
080c0c10ed000cfb
0903f4fff8f7f601
05fefe0405070c0f
03f9ff0af2f7ee02
fdfdffeef9f00a07
080501fefd040906
f907050bf6fdf6f4
f9f80ef9fdfbf900
09f204f7f8f20d0f
0906f1f004f10afb
fdf7f80ffd09f509
fc0e050ff2fc04f6
0b0805140c0f07f6
f80efef30feffaf0
f50207fd0d06fe14
fc10f611ff0403ec
12f7fff0020009fb
0b09f710010c05fe
02f9fbeff4010ef9
f90101090cf7060a
fcfc01fe060d03f6
fb0409fbfcfb0c02
f1010011f6ec100a
fcfc03f4fb06ec05
f3f4fa0df2fe05f7
fe0e03f3fef7f511
0e070a0a04eff106
08fb040c06f90fff
06eb0c02f6ed090a
f6f7ecff020b01f5
0804fb0b00ef03f9
fd09f3ff02f7ff03
f5fafc0c0501f303
feee06fffdf8f4fb
0bfc0bff020cfdf3
09fc040c06f60a06
f2eeff01ebf8f906
0ef4f6f8f9080903
06f7fbf0ff04f8fb
09f80a0804fafbf4
0afa000807fffcf4
05fff2080e02f109
0007f90c09fc0906
0f0907f90e0e0e03
0401f9f5f2f6f3fd
fcf30bfff9fa0803
06f7ef0e08fdfd0e
09fffc08f8f60b0e
110d07f6f30af603
09ef040cf610fc00
fd0609fcf60e09fa
f6fafef90d100909
030d0001ff0cfa07
f20b02f80bfcf3f6
0f070af90d05f100
0808fd0d06fb0ef4
1406f50a0c05f900
eff50807f6f5f905
fef7ecf1f30e08f2
fb01fe09050413f5
ef06fb01f2070f02
ffff11fb050ef3f3
02f5fafa07fb0afa
f9fbff020102ed08
0d0804eff40ff009
fff8f006f50208f7
07fefef4faf90500
fa060404f7f90e10
ef04010a07f4fb00
0212f7f400f30a0d
0b08fc010006fbf9
fe06f70309fbeff6
080ff60cf3f805f6
04f6fff408f710fe
f5080efdfc06f2fb
06001002f7010ef2
0c0007fdf5050900
f7fbf301fb0601fb
0004f3fb011001f9
f50002fcf80ffb0b
f4fffdfcf9f2000c
f9f41704faf70806
f600fd080a080a0d
04fa1003ff0a1401
03f50a0b0803fa0e
050a1107fdf60c0c
f603edee02f40b00
08fb06fe100cf50c
07040df109ee00fb
f5fc0208f604f4f5
08fd0b0a0704f302
01f7050afbfff002
0a10f8fdef080d03
0806090403fbf708
00fbf1f8f10a06f8
f9f4f7f1f4f8f3f5
f204f20d07f702f8
0ff804fff60df7f9
f5f90cf50d0c1112
f80d080b06090f00
02071006fff904fe
f4f9f309030c0ff8
fe010508050ff404
0802f3011206f7fb
0c00f6eff3f40a0b
090708f4050cfaf9
fffd0df0f909f70a
02f3f805050204ef
f8fdf9f6edff01f3
0707fc02000d08f3
fa090e0d0afffaf5
07fe06f4fb0bf8f5
fa06080e00fa04f5
f1060502f5f6f6f9
f804fafe11f2020d
fe0204f301f5fef9
fd02fb060bf8f70a
04f9eff50b08f7f5
f8081103fd08f403
f5f505ff00040e0c
060bfb0c11fe010c
faf70d0afa00fdf5
08020d0c01060f01
fe0609f00ef70c0f
f6f90a0e05050609
02fcf2f60afbf007
07fbfc01f4010907
0a0efc01f7f500fe
01f002ee06f801f3
fd15fdfffafa0dfd
0e03ff0e04eff6f6
000803fbf5faf408
f5ef020901f708f6
f3080cf6fb04f9f6
09fd04f206f9f20e
f2f20b00f40300f9
ed0cfdfc0b09f5f9
0cfbf1fbf7fe0df7
04f80f0e06f5040c
020607f8f705f506
fbfc000e0f0bfef5
050208fe09030d0e
02011003eff40e0b
f40709fcff040609
f404fa0dff08f6ff
02fe14fc09f40df9
fe0702fe0ef2faee
0404f2f0fdfffaf3
0712fc07fc01f508
03090a06f60a1000
fe020d0c09ef0cf7
0c0cfbf4f705f007
f703f4f304f90d07
0212f804f4fcf5f9
fb08fbf904eef6fa
faf305040dfaf5f0
fcef0df2fcfefd07
f4fa0afaf702fd02
f0f3ea030c0608ff
06f2ed00070e0f13
f1eefa0f0aecf40c
09fef3f8010af8f6
010504f10bf5080b
fa00fdf1fa090d14
07fd05fff7fff6fb
fbfd05fe04fc0d02
08f50c01fff9f9f7
08f40703fe0502ec
05fe030f00f4ffff
08060305f8fcfafb
00f30ef30c02fbf8
07110002fdee0e12
ff03f7010ffff1f8
07f1f60e0b00f9f1
0a03f2050108fffb
09f9f3f1fbf7f00b
01f20904fff4fc06
05f3f7050bf2f2fe
0a03f9f408fd0af8
070fed0af509020e
f9ee060c0efbf308
fff80c07f6fbfc0e
0907fdf30b090ef3
fef9fdfff9fdf010
fcf406f0ed0f0cfd
f3f20a0605fff009
0a030af9ff05f8f7
0af701070af8f7f5
edfbfff9f4ff07f9
00fb0ff1fb08fdfc
06f8fb0cf3fefdfc
f801f90e09f6fe04
0cf6000e0ff800fd
f9f20106fa0ef700
f0f40707fe00f602
060203100b0b0006
0e060506fffaf203
f5f20108f2fd0a0a
ff01fa02fb05f3f4
fff30101f607f2fd
fd05fbf6fb0204ff
0d0afb09090bfa0b
0df7fdf400fdfc08
fefcf9f705f8faf4
f8120b0dff0e0a0f
f6f905090802f3f6
f6f803f2f7fff00a
0902fdeff1fefb0b
04fb0eeff00a05fb
f300160302f1f507
00fffa06fcf7ed01
f703fbf409fcf7ec
f610f70af2f4f8f5
0504f2f40707f4f2
f8fefb030f0102fa
050603fbf201fe09
f90bf80203fbfe07
eff7000cfa08ecfa
0109fafefd06f2f9
fbf3f80c0dfef1f8
f1f604f101fafb0e
060dfc00f7fa0406
0608f6fd08f4f40b
f704f9f8f6f2f506
f1060a05f8fefc0e
05fb04f3faf3f908
fe03f40bf6f9fdff
f701120ef4030fe9
f0ef0b0cf40b020a
f1f915fb090a0bf7
faf503030007effd
f70b02f3f1ff10f5
04020b0afff8f109
fff6ef02fbf8f202
f4f900f206ee02ef
0009fa0b0a0c0601
0bfe08ff04fcf4fe
0513100103eefc00
f8fbf10af40503f7
f20af80bf9f71204
0cfb07faf606fd10
fdf302f6f90b09f9
f2f80df10cf00a04
060bfe030c03ed08
04f3fa05fb09fdfb
f501060809f0fcf8
f9fe050b090bfd07
0903f7fe04f6fbf7
