f30d05f5fbee0102
010dfe060af2effd
04030df20a10f6f9
080ff2f0f7fff5f2
f9fafef70dfdf8fc
f10cf10202f91004
06f502ff08edf2ff
f60bfefef608fbf2
15e90306fa090809
ff0a000e0906f8ee
f5f5f4fef710f3f1
fcfc04f9ff0cf413
ff0a05f102fafa01
08f8f7f901f2f303
0afef1f50ef80701
0500f5f60b02ff0c
0af6f504f2f4f40a
f5f7070003fc000f
fef5f8fe0601fefb
fe050b0cf6010bfc
f2fa0df8f20f09f7
fe060304fa09040f
fc0302f205f7f8fc
020d04020306ff06
0ffc00f4f4ef0708
fe04f80003fa08fc
f40af600080cf702
fd09f3fcfaff1005
0100f6fc09f70c03
0b00ee06f70d08fa
02f9f1f9ef00faf6
f3f3041000f3f4fc
f300fd0bfef4f70a
00fcfdef06f4000c
0bfef903fe0c0d11
f9f200f4f3fe10fe
02f406f9eefbfdf8
0c0002f60befedf4
07fbf7ef0000f0f5
f8090808f7081412
f2f70a0bfe09fef1
0a04ff0e04090efc
00030105f9f5f209
fe05f1ff0a09fc03
00f3f4eff4f008ff
fdf80600f808110a
fbfcfe0504faf505
faf10bff0106fb01
0cf40af6f504f803
08f4050c040f09ff
fafef9f2f5f0f2f5
f6fcfbf70ef5010d
f9100dfb0ef9000f
05ff140bfef7f706
09f708f9fbf4f6fe
00070efe040006fe
fcfc010c0e02ff08
0bf4010e04f7f5fa
faf3f7f8fffaf307
f701ff0dfe070311
0a05f7ffeefbf3f6
fbf311fc03fd02fc
f7fdfaff00fcfe06
090cf509fa0208f5
f6f2f9fb07ee0d0b
0bfb0cfc040d06f6
06f8010b06f1efff
04f4040001f3f7fe
070cf50904f1f6fc
040105fef6090807
f3f50cef0a0909f8
fcfef3f90704fb0c
0af0fcf5f00af0f1
f8fa03fc09f803f2
00020eeffdf8fc07
030bfc0d090909fb
1002fe0101f6fbfe
0ff807ef0506f9f3
f904f8030503ef0c
ff0c020d010d0cfc
03f3fdf3f2f70106
05f5edf8f9faef0b
f3090e07fc0bf00c
01f10b0806fe08fb
0706f40beff90601
f8070d0301f3f711
0b040210f3ee030a
f5fd010c08ef050b
09faf4fbfdef0a0e
0105f9faf8fdfe0d
fc06f6060af3fdf7
f8070ef4f31002f9
09f20bf0fb020307
effcfef9f2fcf202
0f08f40400f800f5
f8f606030bfb0b03
000c01f1f0fef808
060908fcf70b08fb
0dfffe0c08f8f60d
faf5fbf1fbfef902
f3f9070d08030cfa
00fff00808f90b03
0bf7090704f40008
0a0bf2f208020c0d
f712f108f00d03f2
f1f10ffb060aed0c
fcfff1fd0300fb0d
09fd01fa01fc08fc
06fff3ff030b01fa
03f3fcfb05f50906
f407080bf7fcef00
fced1006fc0610f5
f0f8f90f0fed060a
ff0af6fc0b0af7f3
04040f00f4fb060c
09020d0107070809
020108f4ee08ff03
fa0cf6f306fbf109
000af7f9f8fcee00
01f200f2fff906f2
010e03f2000cfc02
00f3f001070ff105
07fa0b05090509ed
fef0f30ff8f20009
f20df9f00eee060a
0402060b080b04f6
faf7fb0e0709fcf3
fa06f50808feebee
ef02050efcf108ff
f409f9f903f80af5
0c08fa07fffcfcf7
fa01ff0709f70afd
f2000b0ceefbf8f2
f2fff90100fd0603
fcfd03ff09f703f2
fff7f7fef80202f9
1213fbf9fd1108f8
0404f4fe02f208fd
0806fffaf70dfe02
fbfa030af6fc08fe
ff01f2ed07ef05f5
07f5060afc070f08
0b0bfbed0103ff08
f9090c050b0ef50d
f6f6fbf9fefa0c0a
f40405f504070c0d
f4ff0c0af70408f3
fc0606fefff4ecfb
0500f90ef914fe07
faf0f5fb0afe00f8
f805f9fef5f80cf6
03fd05f5f1f1ff07
f9fefdee0ef5f9f3
fffd0af8f6f20002
f904ff01fff604f0
0bf70e08f6f30c09
f2ff05fa0af6fb10
0efa0af1fd07fb03
f20610fbf302f605
fcf9000efefae8e9
02fffa04fc0b08f5
06fefcfc0c0ef600
050906f9ff0cfd05
090e01f4fa0bfff4
effff907fcfa0908
fa0e1301070b0af1
0cf30df5f5f50a06
f9f301f00c0a08ef
f008fa03effcf905
01fffc00faeff1f1
05030e04f1f4fcef
09f30204f105f1f5
f7050ded04f9f7fd
f9f004f809000004
f5f5fdfe06f607ee
f6fef008f604f7fd
020c0cf5f7f3fc0c
fd010a03f9100b04
fcfdf7ef04fd10f4
0d0e0a0606ff1412
fffa080e0eedfd05
fa020b02f4f20109
fffff3ee05fb0703
000eff0104fa0bfa
fdfcf8f800f6ff04
f1fdf8040a04f7f2
f90100f20cff07f9
02f101fc0c0bfcfe
f1fbf70a0df00ff6
faf70ffbf707f906
f6fb01f0f6f4fc0d
03f3fb04f60e0305
f9f4fe020e03f10b
0506fdf90d05f6f8
fd07f2f705f4f2f9
08f2090b0c06faf5
09ed090d0707f709
f9ff14f103f9f4f3
07030910fbf9f206
0803f105f606f4fe
f20cf3fa020afcfb
0af4ed07080205f5
07ff0601fb04f600
06ff020b0bf10408
0e0ef50eff0df90f
02ff03fdfc0c020f
080405f9ef030409
00050af30df3fb05
f9f7f70eee0b080b
fb01f5ef0bf2f6f3
09fafa0afffb07fc
f6f20b010602010f
fc11fafcfa0203fd
0306fbf70bfe0910
f6fdeffcf400f8f2
fb0a07f5f9f2ec0d
f70b05f3f6fe05f2
f3f006f5080af3fe
04f7f307090409f4
f903f4f0f60a03fb
010e0deef00afcff
f00505070204f707
02f5f7f4040a07f2
fe00f4090404f511
fd10f501f100010d
f4fcfcf0fff2f7f3
0c03f5f60df0fef4
f6f210f2f4fcf105
0101fd02f804fc0d
f905fdfffa05ee0a
f10909f6fefcfaf8
020e0401f60708f2
060604fa0e0c0808
01fdf7f2f9f504f6
fe03050c0402fbf7
00f4040c02f80300
fe0200ef110dfc07
fafd110c04f7f40e
0004070407fb0c0b
0beff8f20b10f6fa
0decf9f3ff0107f8
ff0bfafe06f00508
0cfff6eb0cf40d08
02fa09fdfd07f8fd
fceff7f0ecf1f3f6
ff0df00903100af5
f6020cf2f604fbf5
01f5f50cf402fc04
f607fdf200010c11
f9f5fffffffd0409
01fafcf909fd0af5
00faf7f9fbfb000f
0c0e010d0200f7fb
03fff8f806020afe
f7f90c080804f706
fd0901f3fcf5eeff
0a01f30cf50ef609
07fbf0040beef807
f5020004f10cf003
080df1effff80bfa
f4effbf5fdf402f6
fafaf80603effa07
fc070cf301eff40f
06f4040809f90f0e
1210f904f50cf5fa
090e10fff5050bf6
fafffcf3f303fe00
06f900f6f1fbf80a
03fe0a0904f9f7fd
f610f3fcf9fefb02
05010ef1f60bf1f9
080309fcf50bfcfa
0a10fdf50cf403fa
f503ecfff3f8f4fd
f603f203fb0af908
04f3f60604f7ecff
01fb01f1fefe0a0a
0c1007faf80d0007
f6fbf70703f00e13
0300fe0dfd05faf4
0905080c1008f205
fdee0c0703fefdf5
f80305f7f40503f1
f6f3fbf9f6fa0914
010efc0902f1f7f3
f60403ff0208f900
f2ffff02fef60ef3
f9f7fa0cfafbf5ec
f90504f5f9ff0302
0a0a0b0afbf308fa
08fb06f0fc09fbef
faf7070b09f1f9ef
f3020b03070af8fa
ef0102f604040ef7
03f6effafefb02fa
0e0aedf10b021201
020dfd0705f2ef08
0aedf303f8f2f0fb
f907f405f8fcf0f4
fc0709010cf6f001
0110090b0e04f9fb
fd09fc010a00ef06
04fbf1fcff080dfb
0c010b0909fb0afd
f60ff603faf908ff
f80bf308f5fefd01
fb05060703f4fff3
080cf8fd0307f4f5
f400f7f709050100
f00109ff080cf903
f401f60701f4f5f4
040ff9fb04020813
09f4fc0504f5fafa
fef608fafb0d0608
0b0605010201fcf7
fbfaf2fcf8ff0b0c
15ef0deef207f90a
fef9fef6f3faeefc
f8f5fc0b040e0a02
0b060802fe0bff0b
fb0efd05fb0009fb
f9ef030d020607f9
0efafc06f8080603
f6faf2f90effff13
12f604120207ff02
000f0504050802f9
0201f80df8faec00
09f5080903000405
040b0006f8f3fb00
f2fd00fdfc07f300
0bfd0606f9fd0e02
fd09eff508ff0bf7
f60e0d02fc08fc09
fafb12fafff9fb0b
fe0af70d0903f1fe
0705f806fe0d04fe
00effc04ed0afcfe
00f2f70d02f20e02
070af600f9fffef1
020af9faf4f10dee
fafd08f7fefc0408
0801fff802efff02
01f9fcfe0bf9f2f5
f8ff03f6080a12ef
0ffefc0bf9fc0509
ff0e07ff03f8fc0f
03030ef2f2f8eef5
f802f608f8f005ee
06f1f802fff9fffe
fd0414fc03f3f6fd
f6faff030a0eee0f
0cf8fd0bfc06fcfa
0d0d040502ed020a
06f4f9fe020efbfd
09f4f801f907090d
fcf9ff0407f40c0a
f905f90e0f07f30c
f7fafffaf5fd090b
fb01ffffeff5f3f2
fb05060706fe0a0c
f40bfff1f1f70907
04f60007f40af50e
f9090808eff9000a
f20008f4ff0bedfb
120f0b03faf9f604
f7ff01f407fdfcf7
04f8f8fdf710f2f7
ff0aff0801090d0e
f6ff030b07ee080e
f505f2f4f90df7f7
fa010009000d030c
fdf600f8f6f60ef0
1705f90dfbfa0303
f90ef602f9fe0704
0b00fff9f8f7fbff
f4fe01fc07f1ee07
f302f402effd0804
0304f5f2fdf0f5f6
0700f104fd01ed0c
fbfdf3100207feed
f902f9fcf10101f2
faf711030008f3f1
f506f3f40903f9fa
f7f60ef10afaed0d
