12040b05fffc0608
fcf70d00ff0df609
f4000cfafb0301f7
fbff08110910060d
f60902fc02edf4fb
f202fe01fffa0bfb
05fd020df0f8f102
060d11f3fafd02f4
f6fe0104fafc0b0d
030aed03030afbf4
fe03faeefafc02fd
f80d0700fa0d0f02
ed0bf9f5fff60a04
0a0f02f603fdf0fb
f4fcf5edff0d0004
07040200fc08f601
f905010a02fef5ff
f2fd13f9080502ee
0501f60bf10403f4
f7f90afbfbf3f80d
0bee040b0310f102
08f7100df50bf907
fbf7f4f0fc15fdff
01f3f2f1fffbfdf2
0ff20308ff00f4ff
f5f6f1f6f50b06ef
0709effe05f7f606
f5fa050dfef5f30f
fff2fcef1307fff6
fbfa13f303f9f70d
07fa0201f20af410
f4fe05f2f8fb0f0c
0f06fc0ffb0c01f5
000903f4fefef3f5
0b04f003fc01f2f7
080cf9edfd02fc00
f9e90afb01fefefd
fc070406f810eefd
0900030a0af900fe
06090213030ef700
f507f9000d0afe0c
f3f2fcfff40cf0fd
f1f8f504fcf200f4
01f507f801f4f00e
fef3fbf902f3f30a
0ef5ee09fa0e0d0b
04fdfdf4f3050b08
0006f2f401f808f1
0404f6ee05f2fefc
fbf8ff0cf312fefc
f5f6f210fa000cef
f6f3fff309f4fa12
08eef402fbfb0401
0cf9f50aff000e02
fef4000a030d0404
01fafa06fcf6f3fa
ff0b0a09f601fc06
0cfcecfdf40cf5f0
04fdfe070afe06fb
f90403f7fa0ef8f4
08ec05f108f3f8fb
ff110007fef1fbfb
fffef0040607effc
090106f604f4010c
f9f400f106f40c09
05f10f0b03030108
f903fcf4f4fcf9fd
f9f3f309fd09f60a
050107ff0e050801
0b0a0a00f9f4f8f5
0802f3f1fefeff10
fff2010603f9f8f1
f012fbfef20def0c
fdf500090bf509f1
08f6fdff00fbf30e
f6fc0500f304fef8
0a0bf21300fa0705
f6f5fcfa07fff002
0efc01fe05010ff7
f9fe05f9fb07fe01
f9ec0af5f9fef802
02fcfbfcf80c07f4
fbff02f8f6f1fef4
0cfe0703f8fdf6f4
effefa0cf30a0cf8
0701ecf3ff0c0208
fe06f4f7f6fb0208
04f0f7fa09f1ef0f
000009f30bf407fe
020f050d0601030a
07000b0908050809
fc090cf4010a08f7
0802fefa0c09f511
00f7020d06f706f1
010901fcf7f30c0a
0103f8f80c0af4fd
fff7f809f30306ff
0202f809f8f30ffc
f6fdfe0a090c0806
07fb0b05f6f90600
faf3080ef609f609
f60cf101ff0e01f3
f908fefdfa0503ff
04f7050a06faf70c
f8ef07ff10fa0a04
f908ff0a0cf20b08
0e0200fbfa03fdf4
fff8fef3f40a0b0d
0df20af4000cfe07
f3f104f30206010d
0d07f9f3fb0100f8
f90602f9f4f1f2f9
080802f1f3f1fff8
ff000e0506fe05fb
fffe07f7070002f7
08f8fff1f5f4fe09
0108ff0ef7020000
f3fd09f90a01eef9
00f9fd04f6f7f505
fffdfaf208f30d08
f7fbf9fcf3f6f3fa
fefe0c05f407f8f4
fc0002010aef0e0d
fefc02f30706effb
00ff060cfd00faff
010d09fb07ed0b0a
f7f7010c0c0ff9fa
0603fb0b0af5000c
05f7fc07fafffcf7
fc0cfafa090ef904
0a04f010fd09fd06
fa07f0f1f4fd0d0c
0df9fff60fee05fa
f4fa0008fc090dfd
0308f2fffafbf10b
f802f3fffbfd0af6
0811faf3f1f508f6
0ff90c02fcf5fbfa
0c0a1001f6f609fa
0afe08f8f3fbfb01
f9f2f8f0fe0d0404
f8fc0b01090df9ff
000601f00c05fc05
0afdf50e03ff0507
ec01f702ef0309f4
f2fe12fa04f1fe02
05fe0605fdfb000c
03fb0b0bfff306ef
f40b0102f5f80af9
fdf207f4fe0d0b07
f6fa02fdf8f20000
040804f4f7ff01e8
0dfc02040ef000f8
f3f8f5fbfff9f702
0dfffa0507feecf8
01fcf20dfefa020c
f10efa0c08070303
050bff04f70d01f7
f1f50bf00a090ff8
f41008f400f9edf9
0dfa0afb000b0a02
09faf20ef7f0fd09
030a0e050604fdf9
fef50f0a08f31602
080307f6fc01f6f5
00f7fd0af3030afe
0605f9f7f8f8f4ed
06010900fb0eff0f
0404f6fc04e9fb05
f2f7050b02090dfc
f30306f3f8090ff9
0a060d0d02fbf4fe
f00a05f200f403fb
0b09030902fe02fc
00fff0f00cfdf5f8
0ef90c12f4f307ff
0af1f6f802f40505
f70108fc06fcf4fe
0205f4ecf5fd07f9
fe070d0afc0c03fd
f8f5000cf8fe05fb
01fcf3fd060d00f8
09f6faf10e0408ee
0a00fa0af5fe0a11
fb0507f0fff7f700
fd0afb0b09f0fbef
0afdef060cfe08f5
0403fb020b10eff7
0c12fa03f10a09f8
0c070b08fd01fff7
fef9f7070301f509
09f403fbf0f111ff
faf00ffaf301fb01
0803ef010df80c08
fcf80401f9f8f7fb
f5010c0506f60cfa
fcfbf50ef4f8070c
f7f40bf408ef0908
05080cf4f7ef0a07
01f801f5f5f1fffd
fd06fff6f7f0fd04
01f2fbf30a0cfcf4
effc09f509040305
02ffef0201f5f311
f7f3f70707fbfdf4
00080bfc08f3fc12
0e0bf60607f20d09
03060af6fdf30c02
f3ed03fbf6ff03fb
0e10f80605fef5f1
050405f90cf107fb
fa0af208f3080708
0f0909f0f5f40509
0a0c0100fefbfef3
fef6fa09f7100cfe
0cfa0bf703050ef7
0ef5faf4eefff408
ff0a14f60af1f8f1
f70bf8ec0301fb07
04f20bf3fd040eee
ff0a020206f0f60c
f1f70cf709fb0008
08faf5ec0ef3f8ff
fff708ed02020b08
f7f3fc0aefedf20b
f8fffcf90a0bf9fa
f4fd0bfb0e0b1002
f90806f3fc0efd0a
edff0cf9fbf50304
f604ff0201f9fffc
0a090ef8f204fc0e
01f104ff05f20707
f513f5fb08f8f90a
0f0af103fcf80cf9
f4f606010cf90b0d
f8f2fc0200faf1fb
fbef09ecfe07fefa
f506eff5f60f09f7
f60809f0ff0ff5f8
090c03fe040eee06
fffcf307f0eefdf6
fb06fa08fc090af1
07fe0efffaf2050d
020a030007fe06f4
f5fb09f4f5fd0809
fbf4fa0b04f5f909
0cf8f00b02fafa0f
0bff030d0900f8f4
fbf9fd040c08fcf6
f7fb0bf9f5f2ee08
fff50601fa0000fa
fd080204fbf010fb
f90d06050401f60b
f8f50d0cf9ee03f4
fcf803f9faf3edf0
000bf707f8f600f8
0ff5fb09fa00fe02
05fd0ffa01faf0fb
0d060af60a0f0bf8
0a00f60202f8020c
f9fd05ff120408f2
fbf313f10404f502
0df7060f03effa05
fb0af8edf90c0907
ef1105fbfaf9f7fa
fa0aff04fa090e05
09010ef7faf1f6fa
fefc0c0702031003
fe06fbf5f20af1fb
f7f1f2f4f5f10f0f
070907f702ef0a0c
f4fc050c0b0905f7
0df1fcfb0100f508
0b0411f8fb0302f7
ef05fa09ffee09fb
f2f1fcf1f5faf3ee
f20ffefff0f4f703
fd120e020603fcf9
f8f604f5ffea01f9
0604f4f40708ee09
f3fa01f008f3f1f7
f9ebf1000bf6eef5
fff7f2fff8fa07f9
05fdfafa06fef406
f201f8f5f5f1fa00
08f112fe05f6f80a
f7f5f80cf3fe01f0
f70e0af5f709fafd
1500fd0ff7f8faf1
05f7f105040e010f
0308ff0bf3eef4fa
f3f4fafb0f0206ff
07f70304f008ee09
fbfa070ef60e09f9
09f9f807f60ff70a
04f2fbf10303ff06
fefdfaf4f1f70608
f809fdf401fcf907
f4f507f30c0ffe04
0500f2fa09faf406
fbf2fff40b0304f9
f50df8f9f604fa0e
f403f21004020001
050df70cf908faf5
fef1fff9f60c0803
0600fafb0905fa0e
f005f9fa07f30806
f704080b040af7f3
0f0303000e080bff
fdfc010900010df3
fc08fff5fb12fcf2
040bf5f80af8fcf5
110f09f70b0a06f8
0302f0010afceeec
06fc06f30d02f607
0407f5f80a0f05ee
f3fe06faf00701fa
f400f100f50b070e
fc02040cf810f8fc
f5f1fefafe030df7
ffff0cf905f6fc01
fd0002f509faf70e
03faf70205f9f2f3
02fcfc0b02f20bfe
fdf905ff00f705fb
f0fdfb09f70c0d12
f90808fd05f8fff8
fef4fd12f5f300fd
fbfc0afb0afe0703
fbf20e00ff07fb0c
fa07fb030100f9f1
fef5f3f8fafb0dfb
00f3f60af8ef0d0d
0df510fa080bf3fa
f7060a0cf3f0f101
fafbfdf1fd0607f6
f90bf70805fafb0e
000df9fbf602ff10
080a0b02000e0908
fef903f9f4f4f10b
f714f303f8f4f705
ffef0ef1050ef1fb
0efbfc10ff05edf8
020efdfff004f5f4
09fc03f1fbf809fa
000bf40309fa0b11
fa06f9f7f7100ffd
fb0109f1f105eff7
10fffdfb020f0807
080908f300f0f6f3
f9fdfef9fafa07fe
05f5fefdfef3f20e
0a090011f8fb090b
f8ee03fb0002fcfb
0105f9f306f8eff6
05fbeefb020cfa0f
f9040bfbf105090b
f4f20c0cfff50d0a
f4f8020d05fafbf6
060ef7f205070610
f30dff0f0f06f8fb
09f9f200f807fb09
0007f1030b02f40f
fdf2100205fcfbf5
ed06fff4fdf70dfe
eef7f80707f4ee00
fdf6f9f009f5f0f8
f70f03f807f2f6f6
0beefa0efaf6f7fc
f4fdf20c0507f501
03f4f7fbfbff11f1
f4f40bfc0e06fe03
0cf306faf7050301
fff508f4faf8f50d
01000005f20c05f3
f30c01060703f9f5
0ffbfcfef3fa02fa
f7100d0600fa0908
f70afd020c000d00
05f30803fa0dfff6
0aff07f306ff0303
09f7edf805f4fbfd
fcf50cf8f209040a
f50cf60204f4eff1
